<pad>	0
<s>	0
</s>	0
<unk>	0
.	-3.61988
▁	-3.78552
?	-4.43544
이	-4.66573
도	-4.67172
는	-4.79809
가	-4.87243
..	-4.95378
을	-4.98732
,	-5.06896
에	-5.08028
...	-5.08635
고	-5.10141
은	-5.13033
지	-5.34111
의	-5.4216
만	-5.4639
를	-5.52183
다	-5.53293
하고	-5.69223
!	-5.71209
로	-5.71766
▁다	-5.75788
▁ᄏᄏ	-5.7624
나	-5.79381
~	-5.88871
게	-5.92196
으로	-5.93154
▁이	-5.96263
들	-6.01602
한	-6.07525
서	-6.14218
▁안	-6.18519
면	-6.21649
▁더	-6.21854
라	-6.22344
야	-6.26579
과	-6.26804
네	-6.28353
기	-6.38703
▁그	-6.38992
냐	-6.40648
▁북한	-6.41363
▁왜	-6.42422
하는	-6.42675
아	-6.45211
ᄏᄏ	-6.46248
▁진짜	-6.48794
요	-6.51189
에서	-6.52715
자	-6.54345
▁잘	-6.54367
이다	-6.5576
▁문재인	-6.55987
인	-6.56996
해	-6.6154
대	-6.61603
니	-6.64361
▁트럼프	-6.64365
▁그냥	-6.64447
어	-6.68202
▁ᄏᄏᄏ	-6.68564
??	-6.69007
인데	-6.70498
▁또	-6.71302
해서	-6.72588
~~	-6.73418
▁이제	-6.76264
▁못	-6.76357
와	-6.77834
▁개	-6.81446
는데	-6.83191
거	-6.83673
하면	-6.83872
▁문재앙	-6.84011
이나	-6.84037
▁애	-6.85001
▁나라	-6.85574
▁돈	-6.86504
수	-6.87562
▁좀	-6.87803
▁지금	-6.90567
....	-6.90821
!!	-6.91093
당	-6.91565
▁김정은	-6.93107
▁수	-6.94714
까지	-6.96143
들이	-6.96157
▁1	-6.9749
일	-6.99053
▁저	-6.99511
▁한	-7.00607
할	-7.00745
▁미국	-7.00859
시	-7.01518
▁무슨	-7.01976
▁우리	-7.02573
▁이런	-7.02609
년	-7.04014
▁내	-7.04964
라고	-7.05438
▁핵	-7.07165
▁비핵화	-7.08386
▁뭐	-7.08586
사	-7.09077
해라	-7.09223
▁하는	-7.10417
부터	-7.10729
▁하고	-7.10809
▁트럼프가	-7.1262
▁말	-7.15806
▁있는	-7.1631
임	-7.17068
▁너무	-7.18063
▁문	-7.18111
건	-7.18457
구	-7.18919
보다	-7.19384
▁없다	-7.19537
▁일	-7.20382
리	-7.21926
▁대통령	-7.23815
안	-7.2409
한다	-7.26696
적	-7.26807
▁대한민국	-7.27373
▁정말	-7.27489
▁ᄏ	-7.27508
▁할	-7.27584
▁아	-7.28365
▁지	-7.29478
!!!	-7.29484
하게	-7.30448
하지	-7.30996
데	-7.31137
▁정은이	-7.31177
▁참	-7.32233
한테	-7.32236
주	-7.32906
좀	-7.33935
처럼	-7.34325
▁누가	-7.34384
▁나	-7.34717
질	-7.35064
랑	-7.35187
에게	-7.36046
하	-7.38028
▁없는	-7.39499
비	-7.40463
ᄏᄏᄏ	-7.40804
▁OOO	-7.40821
내	-7.418
▁아니	-7.42517
던	-7.42599
들은	-7.42798
▁2	-7.43253
▁이게	-7.43728
▁북한이	-7.43789
여	-7.44718
치	-7.44829
줄	-7.45003
▁한다	-7.45351
▁미국이	-7.45605
▁어떻게	-7.47178
▁제발	-7.47426
▁아니라	-7.47479
히	-7.48351
???	-7.48602
▁3	-7.49119
▁생각	-7.50336
하다	-7.50581
부	-7.50614
개	-7.51749
입니다	-7.51853
▁절대	-7.52556
것	-7.52592
▁그리고	-7.52791
▁많이	-7.53429
▁국민	-7.53445
함	-7.5475
▁있다	-7.54847
▁결혼	-7.55388
▁가	-7.5544
중	-7.56017
▁유치원	-7.5603
전	-7.57065
해야	-7.57138
때	-7.57899
원	-7.58168
▁알고	-7.58754
상	-7.58835
듯	-7.58896
며	-7.59283
▁계속	-7.59466
세	-7.5947
조	-7.59992
ᄏ	-7.60059
▁한국	-7.60125
▁그렇게	-7.60304
명	-7.605
이고	-7.60542
▁역시	-7.60862
~~~	-7.60966
▁우리나라	-7.61401
▁핵시설	-7.62018
보	-7.62364
▁경제	-7.62874
장	-7.63183
면서	-7.64354
▁거	-7.64729
정	-7.65501
▁뭘	-7.65534
▁것	-7.65898
신	-7.66636
걸	-7.66686
)	-7.67338
▁얼마나	-7.67727
▁같은	-7.67987
군	-7.68563
▁해	-7.68585
길	-7.69032
같은	-7.69072
▁정부	-7.69114
▁사람	-7.69333
▁대	-7.69697
▁다시	-7.70242
▁이렇게	-7.70858
▁결국	-7.71129
이냐	-7.7156
▁그럼	-7.71665
음	-7.71764
▁애를	-7.71776
는게	-7.7234
화	-7.72344
진	-7.7263
▁전	-7.73963
선	-7.74094
▁북한은	-7.74307
▁말고	-7.74334
까	-7.74392
▁세금	-7.74921
인가	-7.75048
▁댓글	-7.75155
마	-7.7541
제	-7.7597
소	-7.76102
차	-7.76403
▁오	-7.76921
▁하나	-7.7699
▁김정은이	-7.77213
▁10	-7.77217
▁탄핵	-7.77299
구나	-7.77627
▁평화	-7.7778
▁니	-7.78372
▁자한당	-7.78707
▁회담	-7.78974
스	-7.79015
는거	-7.79276
▁제대로	-7.79361
려	-7.79422
▁사	-7.79702
들아	-7.79771
니까	-7.80214
이네	-7.80513
▁내가	-7.81121
▁빨갱이	-7.8115
▁뭔	-7.8154
▁승리	-7.81738
하네	-7.82321
려고	-7.82823
오	-7.83231
▁하	-7.83529
▁근데	-7.8374
▁문제	-7.84038
된	-7.84285
▁미세먼지	-7.84646
만원	-7.84911
▁좋은	-7.84974
말	-7.85243
▁핵을	-7.85495
▁나라가	-7.86656
이지	-7.87014
으면	-7.87079
▁트럼프는	-7.87124
▁일본	-7.87178
단	-7.87267
▁아니고	-7.87316
▁한반도	-7.87325
▁줄	-7.87395
미	-7.87467
▁다른	-7.87617
▁쳐	-7.88244
▁아직도	-7.88382
▁중국	-7.88832
하는데	-7.88938
▁난	-7.89172
▁큰	-7.90164
▁살	-7.90379
▁협상	-7.90631
▁국가	-7.91143
▁자	-7.91393
이라고	-7.91689
인지	-7.92151
하나	-7.92417
▁지원	-7.92523
▁한유총	-7.92583
▁국민들	-7.92959
적으로	-7.93328
▁이미	-7.93803
발	-7.93836
▁하면	-7.93951
겠다	-7.93994
지만	-7.94074
▁핵포기	-7.94087
▁정권	-7.94114
▁애들	-7.94212
▁돼지	-7.94475
다고	-7.94625
▁위해	-7.95472
▁출산	-7.95616
▁하지	-7.95879
러	-7.95917
▁그만	-7.96029
1	-7.96208
해도	-7.9632
란	-7.96375
그	-7.96597
두	-7.96801
성	-7.9722
ᅳ	-7.97232
살	-7.97305
무	-7.97337
문	-7.97538
이야	-7.97699
▁없고	-7.97956
우	-7.97964
간	-7.98047
겠네	-7.98187
▁당	-7.98355
▁북한에	-7.9839
든	-7.9855
▁아주	-7.99185
겠지	-7.99368
(	-7.99572
▁모든	-7.99783
▁출산율	-7.99887
▁너	-8.00019
▁그런	-8.0026
"	-8.00278
▁앞으로	-8.00401
▁자기	-8.00692
없는	-8.00775
하냐	-8.00851
▁보	-8.01124
식	-8.01146
하자	-8.01182
국	-8.01487
▁되	-8.01605
▁문재인이	-8.0184
더니	-8.01893
등	-8.019
▁황교안	-8.02062
라도	-8.02982
▁미국은	-8.03113
날	-8.03249
▁포기	-8.0334
하면서	-8.03343
▁주	-8.0393
▁재앙이	-8.04136
위	-8.04206
물	-8.04207
▁정신	-8.04731
이니	-8.05113
거다	-8.05148
▁부	-8.05189
▁문재인은	-8.05266
▁해라	-8.06025
▁오늘	-8.0607
▁5	-8.06381
동	-8.06899
▁니들	-8.06983
감	-8.07845
▁보고	-8.07917
노	-8.08295
▁기사	-8.08315
재	-8.08412
▁빨리	-8.09301
이라	-8.09572
▁해결	-8.0966
.....	-8.09718
집	-8.09762
▁ᄍᄍ	-8.09794
▁그게	-8.10126
래	-8.10245
하니	-8.10367
방	-8.10534
▁바로	-8.10645
▁보면	-8.10651
짓	-8.10701
▁아이	-8.10752
했다	-8.10904
▁20	-8.11166
▁사람이	-8.11204
▁어	-8.11595
되	-8.11794
▁있는데	-8.11822
하라	-8.11918
합니다	-8.12067
▁전쟁	-8.12331
남	-8.12581
다가	-8.12613
이랑	-8.12644
▁민주당	-8.13219
▁통일	-8.13271
▁미	-8.13272
▁니가	-8.13354
저	-8.13556
▁제	-8.13618
용	-8.13618
으니	-8.13642
▁쇼	-8.13722
실	-8.1374
▁모두	-8.13805
▁뭐가	-8.13914
▁이거	-8.15073
▁쓰레기	-8.15091
▁완전	-8.15258
억	-8.1545
▁이건	-8.15541
▁저런	-8.15556
▁"	-8.15623
네요	-8.1577
적인	-8.1629
▁집	-8.16531
▁국민을	-8.16598
죠	-8.1662
▁정치	-8.16747
▁도대체	-8.16747
놈	-8.16918
지말고	-8.17461
라는	-8.17619
▁인구	-8.17621
▁딱	-8.17703
▁아니다	-8.18083
▁말이	-8.18321
2	-8.18366
없다	-8.18583
모	-8.18709
▁때문에	-8.18898
분	-8.19075
ᆞ	-8.1923
배	-8.19305
통	-8.19422
긴	-8.19482
엔	-8.19573
이라도	-8.196
한다고	-8.19792
▁ᄒᄒ	-8.20154
없이	-8.2024
대로	-8.20263
보고	-8.20516
봐라	-8.20616
있는	-8.20674
▁중	-8.20701
잖아	-8.20952
▁모	-8.21166
주고	-8.21213
바	-8.21289
겨	-8.21331
▁와	-8.21337
▁시	-8.21973
▁두	-8.22074
▁재	-8.22401
하며	-8.22553
▁알	-8.2275
▁될	-8.22813
거지	-8.22821
▁등	-8.22981
나라	-8.23115
▁영변	-8.23452
▁때	-8.23688
님	-8.23695
난	-8.23869
더	-8.23969
▁가지고	-8.24192
돈	-8.24241
▁어떤	-8.24601
▁아님	-8.25187
▁이상	-8.254
▁같이	-8.25535
▁여자	-8.2581
▁남자	-8.2592
▁조	-8.26403
▁아니면	-8.2643
▁집값	-8.26508
▁이젠	-8.26575
▁하는데	-8.26694
유	-8.26961
▁제재	-8.27562
▁미친	-8.27629
드	-8.27659
▁해야	-8.2773
▁신	-8.27791
▁소리	-8.28574
▁원	-8.28699
망	-8.2918
구만	-8.29236
▁좌파	-8.29788
하는게	-8.29815
▁북	-8.29905
▁불	-8.3009
3	-8.30292
속	-8.3041
^^	-8.30595
불	-8.30795
했는데	-8.31112
▁그래도	-8.31506
▁조작	-8.316
산	-8.31672
때문에	-8.31709
▁같다	-8.31783
공	-8.31871
▁얘기	-8.31978
▁정	-8.32064
▁아닌가	-8.32074
가서	-8.32088
-	-8.32165
거야	-8.32216
▁전부	-8.32224
급	-8.32338
▁모르고	-8.32798
▁혼자	-8.3307
▁교육	-8.33142
:	-8.33167
박	-8.33373
▁나라를	-8.3348
▁잘못	-8.33654
후	-8.33741
▁무	-8.33864
파	-8.3407
못	-8.34102
▁대통령이	-8.3415
▁것이다	-8.34343
▁먼저	-8.34534
▁정부는	-8.34547
▁비	-8.34559
▁이번	-8.34657
▁많은	-8.34837
▁모르는	-8.34965
▁ᅳ	-8.35002
타	-8.35072
이면	-8.35542
▁마약	-8.35571
▁처	-8.35843
시간	-8.35884
▁피	-8.36055
▁남	-8.36099
▁사람들	-8.36194
놓고	-8.36972
▁건	-8.37545
▁가장	-8.37673
▁무조건	-8.37817
▁낳고	-8.37818
▁박근혜	-8.37854
▁세계	-8.383
▁정책	-8.38443
보면	-8.38591
법	-8.39026
된다	-8.39038
지도	-8.39112
▁YG	-8.39299
▁반	-8.39343
▁문재앙이	-8.39421
금	-8.402
▁서로	-8.40397
세요	-8.40505
심	-8.40507
▁저출산	-8.40827
▁치	-8.40857
애	-8.4099
잘	-8.41155
▁4	-8.41171
▁새	-8.41327
▁게	-8.41384
▁대한	-8.41676
디	-8.41679
▁한번	-8.4194
는건	-8.42077
▁북한의	-8.42092
▁30	-8.4213
▁기	-8.42133
하기	-8.42267
▁우리가	-8.42299
▁재앙	-8.42336
하여	-8.42412
▁그래서	-8.42606
▁정부가	-8.42672
▁나라에서	-8.42873
▁좋아	-8.42962
▁어디	-8.42967
쳐	-8.43094
'	-8.43142
▁똥	-8.43185
▁그걸	-8.43186
되고	-8.43541
▁아니냐	-8.43773
씨	-8.44007
▁된다	-8.44024
▁만나	-8.44474
야지	-8.44475
▁북한을	-8.44514
갈	-8.44579
▁베트남	-8.44619
▁꼴	-8.44727
▁청와대	-8.4476
▁시작	-8.44795
▁걱정	-8.45328
밖에	-8.45331
▁없어	-8.45333
겠냐	-8.45663
반	-8.45695
▁걸	-8.45706
▁당장	-8.45716
▁꼭	-8.45894
▁만들어	-8.46157
놈들	-8.46323
천	-8.46334
▁니들이	-8.46397
하는거	-8.46404
▁보수	-8.46484
▁없	-8.46627
▁합의	-8.46745
▁요즘	-8.47459
▁합니다	-8.47568
호	-8.47691
되는	-8.4845
▁결렬	-8.48493
,,	-8.48521
▁어찌	-8.48829
입	-8.49146
▁100	-8.49295
▁곧	-8.49491
▁어차피	-8.49505
▁택시	-8.49541
▁다음	-8.49562
더라	-8.50044
▁차라리	-8.5014
▁아닌	-8.50654
▁국내	-8.50814
▁인간	-8.51054
▁그리	-8.51117
▁생각이	-8.51189
▁날	-8.51371
▁차	-8.51485
▁경찰	-8.51607
▁사회	-8.51723
트	-8.51735
!!!!	-8.51848
절	-8.52032
▁유	-8.5233
/	-8.52505
▁넘	-8.5275
▁문죄인	-8.52752
행	-8.52911
▁페미	-8.53024
▁구	-8.53073
▁안보	-8.53106
새	-8.53216
있다	-8.53505
소리	-8.53806
탓	-8.54
▁위한	-8.5401
던데	-8.542
▁종전선언	-8.54207
▁않	-8.54335
▁간	-8.54432
▁배	-8.54721
▁속	-8.54744
▁것이	-8.54781
▁사기	-8.55025
▁타	-8.55088
▁욕	-8.55134
▁남한	-8.55213
연	-8.55373
▁여기	-8.55583
▁사실	-8.55632
▁아무것도	-8.55679
들을	-8.55948
▁군대	-8.56066
▁없이	-8.56084
▁해도	-8.56091
교	-8.56133
끼	-8.56136
▁언론	-8.56227
▁걍	-8.56259
건데	-8.56396
정부	-8.56457
▁없는데	-8.56623
▁만나서	-8.56677
▁쓰	-8.56684
▁야	-8.56784
한거	-8.56904
권	-8.57172
▁있	-8.57213
습니다	-8.57257
▁사유재산	-8.57407
생각	-8.57445
▁안된다	-8.57492
▁~	-8.57502
▁제일	-8.57631
▁폐기	-8.5786
▁우	-8.57928
으	-8.58009
져	-8.58157
거나	-8.58201
정권	-8.58325
▁누구	-8.58377
형	-8.584
북한	-8.58592
▁머	-8.58732
▁핵폐기	-8.58799
달	-8.58874
▁돈이	-8.59061
▁안되는	-8.59067
▁마	-8.59255
될	-8.59302
사람	-8.59318
병	-8.59336
▁공무원	-8.59379
▁소	-8.59501
▁직접	-8.59522
이라는	-8.59554
▁단	-8.59611
▁친일	-8.59627
▁지들	-8.60073
봐	-8.60575
▁들어	-8.60638
4	-8.60666
▁들	-8.6068
▁결과	-8.60707
▁세	-8.60848
것도	-8.60863
▁정은이가	-8.61009
되면	-8.61168
워	-8.61182
▁국민이	-8.61217
▁그동안	-8.61273
종	-8.61304
▁돈을	-8.61504
▁노	-8.61588
▁듯	-8.61654
▁봐라	-8.61808
▁아직	-8.61862
▁밖에	-8.61871
▁공	-8.62093
주세요	-8.62312
▁되는	-8.62693
▁후	-8.62819
▁갈	-8.63122
▁아이를	-8.63194
▁인정	-8.63224
▁북괴	-8.63392
▁상	-8.63443
▁부모	-8.63625
▁맨날	-8.63747
▁현	-8.63817
▁아베	-8.63934
▁같은데	-8.64405
매	-8.64513
▁여성	-8.64551
▁6700	-8.64745
새끼	-8.64778
▁문씨	-8.64853
경	-8.64895
▁입	-8.65015
거냐	-8.65031
,,,	-8.6524
▁사람들이	-8.65241
▁손	-8.65274
▁전투	-8.65312
▁넌	-8.65328
▁했는데	-8.65805
▁도로	-8.6583
▁몇	-8.65982
▁죽	-8.66015
해야지	-8.66516
▁수준	-8.66887
▁맞	-8.67233
▁먹고	-8.67237
운	-8.67308
참	-8.67501
계	-8.67563
▁준비	-8.6785
▁막	-8.67885
▁볼모로	-8.68012
▁못한	-8.68017
▁개성공단	-8.68063
▁사진	-8.68295
▁친일파	-8.68466
죽	-8.68493
▁않는	-8.68501
▁국민들이	-8.68669
▁못하고	-8.68737
먹	-8.68774
▁하면서	-8.68812
▁평화가	-8.68812
번	-8.68927
진짜	-8.68965
▁거짓말	-8.69078
▁좌빨	-8.69124
▁매국노	-8.69158
잡	-8.69469
키	-8.69512
▁까	-8.69516
▁일자리	-8.69725
▁아무	-8.69756
▁시간	-8.6982
▁뭐냐	-8.69895
▁종북	-8.69925
것이다	-8.69964
▁안하고	-8.70108
▁탓	-8.70207
▁6	-8.70292
▁서울	-8.70328
▁지지	-8.70404
▁기대	-8.70598
▁대체	-8.70625
▁솔직히	-8.70632
▁새끼	-8.70646
생	-8.70692
▁아이들	-8.70891
▁전라도	-8.70896
▁불법	-8.71181
알	-8.71185
▁온	-8.71421
▁낳으면	-8.71429
▁물	-8.71451
▁답	-8.71459
▁문제가	-8.71571
▁있나	-8.71602
▁'	-8.72204
양	-8.72343
본	-8.72429
관	-8.72471
▁대변인	-8.72528
력	-8.72588
울	-8.72956
▁미국의	-8.73004
같이	-8.7301
▁발	-8.73117
없	-8.73347
▁부동산	-8.7343
▁믿고	-8.73488
꺼	-8.73698
에는	-8.73753
▁해서	-8.73918
▁사는	-8.7403
▁못하는	-8.74103
넘	-8.74295
▁나는	-8.74358
▁쉽게	-8.74454
▁더이상	-8.7454
▁열	-8.7501
▁적폐	-8.75018
▁한다고	-8.75182
태	-8.75284
▁사기꾼	-8.75294
는지	-8.7549
피	-8.75517
▁있어	-8.75517
북	-8.75552
▁달창	-8.7563
▁있고	-8.75733
판	-8.75769
▁배달	-8.75826
▁엄청	-8.75851
▁개소리	-8.75938
지마라	-8.76059
▁주사파	-8.76149
▁아무리	-8.76285
▁:	-8.76315
▁언제	-8.76416
▁있네	-8.76466
▁마라	-8.76573
▁알고도	-8.76628
것들	-8.76697
▁잡	-8.76707
릴	-8.76776
▁바보	-8.76924
처	-8.7693
▁ᄒ	-8.77035
▁대통령님	-8.77115
ᅳᅳ	-8.77169
친	-8.77274
린	-8.77387
▁50	-8.77839
▁반대	-8.77849
▁선	-8.7787
▁운전자	-8.77887
▁문제인	-8.77909
▁개돼지	-8.7794
쇼	-8.77957
▁애초에	-8.78008
▁대표	-8.78181
▁살기	-8.78285
▁조사	-8.7836
▁있으니	-8.78362
점	-8.78373
쓰	-8.78391
▁ᅳᅳ	-8.78525
거라	-8.78575
▁끝	-8.78603
민	-8.78669
▁자유	-8.787
▁여가부	-8.79039
▁평화를	-8.79132
▁한국당	-8.79134
▁나도	-8.79204
▁자식	-8.79382
▁김정은은	-8.79635
▁ᅲᅲ	-8.79678
▁현실	-8.79696
▁낳	-8.79873
▁어느	-8.7988
준	-8.79978
말고	-8.79985
▁않고	-8.80107
▁우리는	-8.80169
돼지	-8.80253
창	-8.80333
씩	-8.8066
▁평생	-8.80685
핵	-8.80699
▁결혼을	-8.8073
하세요	-8.80769
▁문통	-8.8081
석	-8.8084
▁가만히	-8.80936
▁미국을	-8.81077
▁병	-8.81127
이상	-8.8132
▁눈	-8.81332
▁지금까지	-8.81588
▁다들	-8.81677
▁않는다	-8.81802
출	-8.81834
▁자꾸	-8.8184
▁현재	-8.81908
루	-8.81963
▁세상	-8.82171
▁간첩	-8.82185
▁중재	-8.82352
▁그래	-8.82385
▁지지율	-8.82541
▁화이팅	-8.82602
하던	-8.82605
편	-8.82621
▁가서	-8.8268
ᄍᄍ	-8.82691
월	-8.82834
▁된	-8.83013
직	-8.83017
▁일단	-8.8302
▁놈들	-8.83031
▁좋겠다	-8.83067
만큼	-8.83069
▁바	-8.8315
▁대가리	-8.83386
보니	-8.83423
다니	-8.83433
거리	-8.83448
▁머리	-8.83493
문제	-8.83514
약	-8.83614
▁집단	-8.83794
▁동	-8.83862
▁뉴스	-8.84025
뭐	-8.8403
▁무능한	-8.84042
▁멍청한	-8.84316
각	-8.84346
▁있다고	-8.84374
시키고	-8.84402
▁거지	-8.84722
▁네이버	-8.84754
▁일이	-8.84783
있	-8.84952
국가	-8.84975
▁만들고	-8.85022
▁핵무기	-8.85035
시키	-8.85037
▁그나마	-8.8516
▁당대표	-8.85406
따	-8.8565
하지말고	-8.85704
지원	-8.85708
=	-8.86056
▁외교	-8.86274
▁그거	-8.86309
▁싶다	-8.86523
가지고	-8.86582
레	-8.86856
▁돌	-8.86867
▁난리	-8.86938
▁여	-8.87064
곳	-8.87087
▁비리	-8.87158
▁힘든	-8.87324
버	-8.87355
▁그런데	-8.87391
▁약	-8.87538
경제	-8.87567
▁북핵	-8.87605
이란	-8.87634
학	-8.87683
▁외	-8.87711
▁있으면	-8.87842
▁있음	-8.87905
르	-8.87915
OOO	-8.87948
▁당연히	-8.87972
설	-8.88041
라면	-8.88125
ᄒᄒ	-8.88218
▁없음	-8.88253
체	-8.88274
▁놈	-8.88274
▁김	-8.88299
▁편	-8.88572
▁문재앙은	-8.88573
꼴	-8.88726
▁선동	-8.88744
▁재앙아	-8.89123
▁있을	-8.89195
▁이야기	-8.89297
▁철도	-8.89651
▁총	-8.89655
▁없네	-8.89882
▁받아	-8.90167
▁해야지	-8.90213
▁힘	-8.90435
치고	-8.90463
▁초	-8.90585
▁있냐	-8.90664
▁국민의	-8.90795
터	-8.90847
▁스스로	-8.91005
▁인구가	-8.91157
*	-8.91223
▁저렇게	-8.91251
▁황	-8.91387
▁전혀	-8.91437
▁만	-8.91479
▁낳을	-8.91549
▁안한다	-8.91601
▁이유가	-8.91626
▁보다	-8.91666
▁것도	-8.91739
▁적	-8.9175
▁맞벌이	-8.91798
▁기자	-8.91947
결	-8.92023
프로	-8.92045
▁본	-8.92089
▁벌	-8.92309
▁하는거	-8.92475
트럼프	-8.92504
▁뭔가	-8.92516
5	-8.926
▁강	-8.9285
▁많다	-8.93021
▁!	-8.93077
▁무능	-8.93257
▁노예	-8.9328
영	-8.9349
▁사람은	-8.93566
들의	-8.93571
▁정으니	-8.93602
▁받고	-8.93629
▁ᄌ	-8.93638
▁낳아	-8.93748
▁함	-8.93872
▁답이다	-8.94211
건지	-8.94334
▁역할	-8.94457
또	-8.94802
놈이	-8.9485
▁파	-8.94926
~~~~	-8.95148
초	-8.95178
▁쑈	-8.95204
▁고생	-8.95275
했던	-8.95398
는거지	-8.95458
▁인생	-8.95783
▁먹	-8.95901
벌	-8.95913
▁아냐	-8.95914
들어	-8.96082
▁짓	-8.96176
▁있지	-8.96625
▁급	-8.96632
▁지원금	-8.96775
▁애기	-8.96908
▁되어	-8.97074
▁대화	-8.97091
대통령	-8.97134
▁만들	-8.9716
▁양아치	-8.97276
녀	-8.97291
▁하는게	-8.97516
포	-8.97526
왜	-8.97596
▁폭망	-8.97755
▁정은아	-8.97873
칠	-8.97938
▁-	-8.98056
께	-8.98069
회	-8.98071
▁필요	-8.98123
ᅲ	-8.98155
▁대한민국을	-8.98175
▁직장	-8.98257
ᅲᅲ	-8.98257
▁보내	-8.98397
▁받	-8.98433
▁사립유치원	-8.98461
받고	-8.98489
▁글	-8.98714
▁북에	-8.98765
퍼	-8.9894
▁하지말고	-8.99067
추	-8.99126
충	-8.99214
됨	-8.99247
▁망	-8.99273
는구나	-8.99298
▁하냐	-8.99318
▁자체가	-8.99419
▁여기서	-8.99452
너	-8.99618
야한다	-8.99647
▁열심히	-8.9976
▁응	-8.99794
애들	-8.9992
▁호구	-8.99929
한데	-9.00062
간다	-9.00142
▁인간들	-9.00383
할때	-9.00404
▁얼굴	-9.00582
▁어린이집	-9.00603
프	-9.00604
▁설레발	-9.0076
▁주고	-9.00785
▁yg	-9.00858
작	-9.01083
▁만든	-9.01083
▁완전한	-9.01129
▁위해서	-9.01368
정책	-9.01525
▁달	-9.01566
▁없지	-9.01632
글	-9.01666
▁아파트	-9.01724
▁화	-9.01791
▁본다	-9.01945
▁딸	-9.02051
▁(	-9.02069
▁남탓	-9.02075
▁빨	-9.02396
그냥	-9.02413
▁홍준표	-9.02419
▁취업	-9.02429
8	-9.02433
▁것은	-9.02463
담	-9.02729
는것	-9.02739
▁알아서	-9.02798
시켜	-9.02825
업	-9.0284
▁월급	-9.02846
해야한다	-9.02852
▁그저	-9.02873
▁달창들	-9.02882
▁하나도	-9.02921
▁남북	-9.03028
▁거의	-9.03092
려면	-9.03104
▁이제는	-9.03113
▁부터	-9.03168
▁바랍니다	-9.03173
▁친	-9.03303
강	-9.03426
받	-9.03437
▁감	-9.03503
▁8	-9.03509
니깐	-9.0361
▁했다	-9.03619
겁니다	-9.03632
문재인	-9.03753
격	-9.03776
나요	-9.03824
청	-9.03837
▁선택	-9.03957
▁잡아	-9.04114
▁오히려	-9.04115
▁하네	-9.04133
복	-9.04194
????	-9.04206
▁최고	-9.0421
교육	-9.04223
척	-9.04231
하라고	-9.04265
거고	-9.0443
▁핵시설이	-9.04489
▁별	-9.04622
▁삼	-9.04695
림	-9.04703
하려고	-9.04838
;;	-9.04843
이제	-9.04926
▁실패	-9.05022
▁심	-9.0513
▁성	-9.0515
▁지랄	-9.05242
▁것들	-9.05283
▁운영	-9.05334
먹고	-9.05399
▁국	-9.05592
▁북돼지	-9.05647
역	-9.05906
열	-9.05979
▁둘	-9.05996
▁사고	-9.06061
집단	-9.06151
빨	-9.06232
채	-9.06288
기를	-9.06302
어야	-9.06302
▁유지	-9.06335
▁대해	-9.06363
색	-9.06511
▁기업	-9.06539
▁분	-9.06543
▁것을	-9.06586
자가	-9.06731
봐야	-9.06769
▁정도	-9.06857
온	-9.06857
▁이번에	-9.06878
▁투자	-9.06975
▁국가가	-9.06991
▁어디서	-9.07025
▁공산당	-9.0711
▁길	-9.07137
▁국민들은	-9.07171
▁정상	-9.07236
▁상대로	-9.07301
▁믿을	-9.07356
외	-9.07591
에도	-9.07673
▁여자들	-9.078
것이	-9.0782
▁자유한국당	-9.08029
▁미국과	-9.08031
▁그대로	-9.08043
돼	-9.08088
른	-9.08265
▁나중에	-9.08304
▁반드시	-9.08325
들도	-9.08357
▁남자들	-9.08406
패	-9.08451
었다	-9.08499
▁헬조선	-9.08596
▁살아	-9.08622
▁이걸	-9.08631
▁박	-9.08632
▁낳지	-9.08723
▁양	-9.08738
되어	-9.08741
▁요구	-9.08745
백	-9.08808
e	-9.08938
▁위	-9.09085
국민	-9.0909
▁총선	-9.09118
▁보니	-9.09128
ᄒ	-9.09148
막	-9.09204
증	-9.09252
▁및	-9.09451
뿐	-9.09556
▁항상	-9.09608
빠	-9.09671
▁변	-9.09677
▁믿는	-9.09719
▁떠	-9.0978
주는	-9.09797
▁가정	-9.09813
중에	-9.10032
▁지금은	-9.10164
▁드루킹	-9.10175
없어	-9.10186
죄	-9.10231
▁인	-9.10487
▁노력	-9.10507
▁이해	-9.10603
▁제재완화	-9.10612
는걸	-9.10629
▁개정은	-9.10666
▁점점	-9.10711
미국	-9.10756
▁울	-9.10835
론	-9.10966
▁복지	-9.10971
▁출산율이	-9.10998
▁좋	-9.11053
▁원래	-9.11058
▁처럼	-9.111
▁올	-9.11125
▁대한민국의	-9.11268
년대	-9.1128
수준	-9.11345
순	-9.11516
▁싸	-9.11932
▁ᄒᄒᄒ	-9.12163
▁방송	-9.12195
▁백	-9.122
▁하지만	-9.12226
진다	-9.12289
에선	-9.12331
▁사립	-9.12342
▁좋다	-9.12347
▁한심한	-9.12363
▁공산주의	-9.12395
었	-9.12402
▁개인	-9.12625
▁좋아하는	-9.12649
목	-9.1274
▁ᄉ	-9.12798
름	-9.12799
들고	-9.12852
기사	-9.12868
독	-9.1287
▁엄마	-9.12875
▁늘	-9.12877
▁능력	-9.12907
정도	-9.12924
▁에휴	-9.12927
▁그러	-9.13007
▁한국은	-9.13013
건가	-9.13059
▁써	-9.13127
▁당연한	-9.13169
▁허	-9.13207
▁생	-9.13281
▁생각하는	-9.13284
▁있어야	-9.13362
▁종전	-9.13393
▁살고	-9.13471
족	-9.13519
했네	-9.13541
들에게	-9.13638
싸	-9.13708
▁당신	-9.13904
▁원하는	-9.13938
마다	-9.1395
▁힘들	-9.13997
▁그러니	-9.14108
▁볼	-9.14128
악	-9.14235
였다	-9.14288
▁종	-9.14416
않	-9.14435
▁밥	-9.14481
▁분위기	-9.14573
▁되면	-9.14768
크	-9.14836
▁거짓	-9.14891
▁뒤	-9.14937
▁아들	-9.15003
▁정은이는	-9.15041
▁5.18	-9.15082
▁518	-9.15119
▁예	-9.15271
+	-9.15278
▁사업	-9.15318
▁돈으로	-9.15383
▁나가	-9.15428
▁유공자	-9.15461
▁나오	-9.15472
▁태극기	-9.15498
▁아예	-9.15653
▁상황	-9.15789
▁파쇄	-9.15819
▁과거	-9.15871
▁이니	-9.15906
▁씨	-9.15909
▁법	-9.15932
▁확실히	-9.15985
▁빅뱅	-9.16078
▁이민	-9.16367
더만	-9.16376
▁수사	-9.16439
▁표	-9.16548
똥	-9.1658
했	-9.16587
▁삼성	-9.16619
▁없애	-9.16869
▁가는	-9.16966
▁우선	-9.16975
▁아는	-9.17114
▁사람들은	-9.1714
주의	-9.17172
▁40	-9.17178
▁하니	-9.17251
거임	-9.17312
▁판	-9.17338
내고	-9.17368
지는	-9.17373
▁대기업	-9.17425
▁죄	-9.17458
거든	-9.1755
▁대통령은	-9.17584
수가	-9.17627
▁젊은	-9.17683
▁황교활	-9.17772
어서	-9.17854
▁ᄉᄇ	-9.17898
▁퍼줄	-9.18004
▁민족	-9.18011
▁가즈아	-9.18032
▁드	-9.18138
▁빼	-9.1814
▁예상	-9.18371
▁말을	-9.18418
▁싫어	-9.18508
▁먼	-9.18514
▁유은혜	-9.1853
ᄉ	-9.18628
난다	-9.18636
▁천	-9.18689
▁사형	-9.18753
▁진	-9.18791
하더니	-9.1883
▁온갖	-9.18866
▁알아	-9.18949
▁더러운	-9.18996
▁과연	-9.19128
▁않은	-9.19232
!!!!!	-9.19324
하니까	-9.19332
▁많	-9.19416
▁애낳고	-9.19484
▁시설	-9.19541
▁하자	-9.19596
▁아기	-9.19683
▁대북	-9.19772
▁스	-9.19828
아니	-9.1985
▁독	-9.19882
항	-9.19943
▁나라에	-9.19991
허	-9.20282
▁미사일	-9.20341
▁그렇지	-9.20401
▁몸	-9.20433
▁행복	-9.20439
ᄋ	-9.2044
▁놈이	-9.20479
ᄌ	-9.20513
▁영	-9.20542
▁나라는	-9.20546
▁몰래	-9.20564
주면	-9.20744
▁확인	-9.20843
▁갖고	-9.20906
▁북미	-9.20911
▁황교안이	-9.21034
▁가족	-9.21078
▁처벌	-9.21096
▁북한과	-9.21234
평화	-9.21245
락	-9.21283
▁실	-9.21319
▁응원합니다	-9.21323
▁운전	-9.2146
▁장	-9.21463
▁기레기	-9.21493
▁니들은	-9.21525
▁매	-9.21569
카	-9.21586
겠다고	-9.21686
합	-9.21691
▁사건	-9.21767
6	-9.21882
i	-9.21938
▁얼마	-9.21973
료	-9.21983
▁군	-9.21987
▁귀	-9.22005
▁따라	-9.22189
▁되고	-9.22232
▁가짜	-9.22388
▁본인	-9.22394
▁코	-9.22497
▁자녀	-9.2251
▁하루	-9.22681
보단	-9.22692
▁이나라	-9.22707
표	-9.22824
▁역할이	-9.23138
사람이	-9.23149
범	-9.23208
▁그것도	-9.23215
▁나이	-9.23234
▁물론	-9.23267
▁대놓고	-9.23307
▁판단	-9.23339
침	-9.23339
▁인간이	-9.23358
▁금강산	-9.23398
▁찾아	-9.23423
▁끝까지	-9.23526
▁임신	-9.23539
▁이용	-9.23575
▁회사	-9.23622
▁방	-9.23738
▁산	-9.23913
류	-9.23936
김정은	-9.23936
기에	-9.24046
우리	-9.24098
▁많아	-9.24145
수도	-9.24378
려는	-9.24474
말이	-9.24478
을까	-9.24534
▁조선	-9.24597
욕	-9.24647
▁육아	-9.24741
▁사교육	-9.24768
▁트럼프를	-9.24784
▁사회주의	-9.24785
▁시대	-9.24813
▁함께	-9.24897
볼	-9.24967
▁있습니다	-9.25062
다는	-9.25064
▁둘이	-9.2511
%	-9.25117
몰	-9.25175
▁없으면	-9.25177
▁대학	-9.25214
▁그때	-9.25244
▁그건	-9.25373
▁문정부	-9.25411
▁쩝쩝이	-9.25451
▁땅	-9.25465
▁태영호	-9.2549
▁특히	-9.25669
▁나쁜	-9.25682
......	-9.25699
▁답이	-9.25774
▁여자가	-9.25981
니다	-9.26004
▁말도	-9.26079
혀	-9.26114
▁중요한	-9.26126
▁핵시설을	-9.26236
▁비핵화를	-9.26257
▁되지	-9.26311
▁주는	-9.26326
▁ᄇᄉ	-9.26334
탈	-9.26427
지요	-9.26431
▁트럼프한테	-9.26435
▁추	-9.26553
▁안되	-9.26594
▁문제는	-9.26708
▁입니다	-9.26766
▁70	-9.26804
할까	-9.26831
기도	-9.26922
▁문가	-9.26949
▁하다	-9.27021
▁믿	-9.27061
자들	-9.27084
▁호	-9.27334
▁진정한	-9.27347
값	-9.27404
▁빨갱이들	-9.27412
▁쓰고	-9.27418
도록	-9.27458
인줄	-9.27493
▁경	-9.27636
현	-9.27701
▁문대통령	-9.27768
기는	-9.27814
▁있다는	-9.27827
▁시키	-9.27919
▁북미회담	-9.27933
있고	-9.28053
▁80	-9.28259
▁책임	-9.28302
인듯	-9.28449
▁7	-9.28483
▁출산률	-9.28544
▁내년	-9.28582
했으면	-9.28605
▁관련	-9.28632
▁패	-9.28645
년간	-9.28659
▁지켜	-9.28696
▁카풀	-9.28714
개월	-9.28739
▁죄다	-9.28764
댓글	-9.28779
었는데	-9.28804
변	-9.28872
것들이	-9.28912
케	-9.28952
인거	-9.2899
▁등신	-9.28994
회담	-9.29038
▁않을	-9.29045
▁미래	-9.29096
할수	-9.29148
a	-9.29183
▁지가	-9.2921
▁못해	-9.29215
▁문빠	-9.29221
▁이유	-9.29232
해봐라	-9.29379
▁극우	-9.29424
▁경협	-9.29483
▁관리	-9.29543
▁성공	-9.29566
▁북폭	-9.29581
▁형	-9.29695
땐	-9.29855
▁없다고	-9.29947
▁상대	-9.29964
▁알바	-9.30022
▁니네	-9.30085
▁내일	-9.30099
없고	-9.30139
▁국제	-9.30276
맞	-9.30289
해요	-9.30345
할듯	-9.30359
예	-9.30463
령	-9.30558
▁기본	-9.30627
▁바라는	-9.30627
텐데	-9.30723
덜	-9.30725
해주	-9.30773
10	-9.3085
▁우리나라는	-9.30997
책	-9.31025
있는데	-9.3103
구요	-9.31054
▁재산	-9.31076
▁회담이	-9.31099
▁문제다	-9.31218
▁쩝쩝	-9.31274
▁팩트	-9.31322
▁대통	-9.31343
▁못하게	-9.31352
▁해체	-9.31393
▁김진태	-9.31407
▁ᆞ	-9.31444
▁우리도	-9.31602
▁ᄇ	-9.31661
▁어휴	-9.31746
▁쪽바리	-9.31754
▁더불어	-9.31774
▁공개	-9.31801
▁ᄂ	-9.31849
▁결혼하고	-9.31897
겠	-9.31919
▁혈세	-9.32015
▁맞는	-9.32068
쪽	-9.32115
▁증거	-9.3215
▁미래가	-9.32215
하다가	-9.3227
▁생각을	-9.32314
조작	-9.32378
▁미국에	-9.32482
코	-9.32489
▁공부	-9.32508
던가	-9.32561
나보네	-9.32572
정치	-9.32584
▁그러면	-9.32633
▁정보	-9.32729
▁마음	-9.32737
▁무기	-9.32747
▁새끼들	-9.32813
유치원	-9.32825
▁학교	-9.32841
▁죽을	-9.32847
지금	-9.32881
▁존재	-9.32952
▁남자가	-9.33039
▁없어서	-9.33059
▁개정은이	-9.33194
▁예산	-9.33196
▁까지	-9.33309
▁진심	-9.33329
~!	-9.33412
▁깨	-9.33468
▁우린	-9.33545
▁한심하다	-9.33662
졌	-9.33677
탄	-9.33681
던지	-9.33689
정은이	-9.33689
▁헛소리	-9.33719
▁핵개발	-9.33866
▁범죄	-9.33901
▁18	-9.33923
▁연	-9.33928
근	-9.33987
언	-9.34032
만이	-9.34147
▁질	-9.34216
▁싹	-9.34223
▁토	-9.34277
▁여자는	-9.34297
▁기차타고	-9.3434
▁아닌데	-9.34348
▁들고	-9.34354
▁독재	-9.34457
꼬	-9.34575
왔	-9.34762
▁내려	-9.34786
▁ᄍᄍᄍ	-9.34791
▁세금으로	-9.34818
▁절대로	-9.34827
을텐데	-9.34886
겠나	-9.34974
조차	-9.34985
▁퍼주기	-9.35003
▁그래야	-9.35039
▁민주주의	-9.35098
▁꿈	-9.35123
▁잠	-9.35143
하지마라	-9.35154
끼리	-9.35224
▁남녀	-9.35234
본다	-9.354
▁일부	-9.35422
▁상황이	-9.35532
▁돌아가	-9.35581
▁잡고	-9.35585
▁외국	-9.35606
하겠다	-9.35625
되지	-9.35698
▁그럴	-9.35728
귀	-9.35817
새끼들	-9.35906
재앙	-9.36025
▁몰랐다면	-9.36131
▁만세	-9.36145
▁경쟁	-9.36147
▁있는지	-9.36218
▁일을	-9.3627
▁같	-9.36368
기만	-9.36429
▁기차	-9.3647
사회	-9.36539
▁개발	-9.3661
합시다	-9.3667
▁오로지	-9.36704
사람들	-9.36709
▁개판	-9.3676
일까	-9.36763
손	-9.36786
▁나서	-9.36804
있냐	-9.36902
▁벌어	-9.37012
▁감사	-9.37065
▁언제까지	-9.37169
▁아니라고	-9.37202
란다	-9.37388
환	-9.37408
겠죠	-9.37413
평	-9.37433
쑈	-9.37591
▁아니지	-9.37694
▁관심	-9.37785
▁싸우	-9.37841
▁주세요	-9.37919
겠지만	-9.37948
세력	-9.38013
▁꼬라지	-9.38048
ᄀ	-9.38193
▁월	-9.38296
▁말하는	-9.38332
▁트럼프도	-9.38352
머리	-9.3836
놓	-9.38362
▁훨씬	-9.38436
해주세요	-9.38506
보수	-9.38597
▁보는	-9.38601
인간	-9.38607
▁물가	-9.38704
▁아니야	-9.3871
째	-9.38718
▁군대도	-9.38798
이지만	-9.38976
▁벌써	-9.38987
▁가진	-9.39085
토	-9.39369
▁중재자	-9.39454
▁증거인멸	-9.39549
올	-9.39633
▁세상이	-9.39649
▁멀	-9.39702
▁대한민국이	-9.39811
▁존나	-9.39831
▁문슬람	-9.39864
보자	-9.3988
누	-9.39912
▁극	-9.39928
▁오세훈	-9.39977
▁서민	-9.40066
▁완전히	-9.401
▁의지가	-9.40328
▁부담	-9.40366
▁트럼프의	-9.40447
버리고	-9.40539
▁틀딱	-9.40556
줘	-9.40735
▁전에	-9.40749
▁교육부	-9.40784
▁돌아	-9.40851
승	-9.40858
일이	-9.40895
▁대선	-9.40955
▁지들이	-9.40965
▁둘다	-9.40985
자나	-9.41052
어라	-9.4108
▁등등	-9.41176
한게	-9.41177
▁특검	-9.41205
낳	-9.4124
▁술	-9.41247
한다는	-9.41261
▁구속	-9.41271
하는건	-9.41292
느라	-9.413
했고	-9.41317
▁덜	-9.41363
시설	-9.41368
▁정상회담	-9.41438
▁명단	-9.41498
t	-9.41512
▁집권	-9.41523
▁갑자기	-9.41528
견	-9.4154
대한민국	-9.41694
보내	-9.41713
이런	-9.41738
것은	-9.41743
▁놓고	-9.41763
▁신뢰	-9.41777
는거야	-9.41894
▁암	-9.41955
▁쓰레기들	-9.41958
▁목	-9.41997
▁낳는	-9.42002
▁꼬	-9.42063
▁60	-9.42206
▁순간	-9.42237
▁포	-9.4225
는거다	-9.42251
▁알면서도	-9.42279
▁조금	-9.42281
▁집에	-9.42296
▁싫다	-9.42309
통일	-9.4231
리가	-9.42346
둘	-9.42355
▁지금도	-9.42388
▁이리	-9.42517
▁발전	-9.42528
▁퍼주고	-9.42567
있어	-9.42597
▁놓	-9.42645
▁일베	-9.42654
한국	-9.42692
▁가지	-9.42726
▁키워	-9.42737
▁않으면	-9.42777
▁어린	-9.42837
▁남성	-9.42848
▁처음	-9.4294
▁바란다	-9.42966
▁따	-9.43016
▁^^	-9.43109
▁애는	-9.43157
▁설치	-9.43242
▁기술	-9.43334
▁아이들을	-9.43368
▁비핵화는	-9.43381
했지	-9.43443
▁숨	-9.43445
한번	-9.43505
되서	-9.43539
언론	-9.43555
▁하지마라	-9.43581
▁의심	-9.4364
▁관계	-9.43641
립	-9.43661
▁대북제재	-9.43672
▁비밀	-9.43676
▁국민은	-9.43677
답	-9.43748
껄	-9.43815
▁퍼	-9.43962
▁번	-9.4404
그리고	-9.44081
▁우파	-9.44175
▁때려	-9.44275
▁돼지새끼	-9.44348
티	-9.44414
g	-9.44428
▁두고	-9.44505
▁협상이	-9.44515
▁세상에	-9.4462
▁ᄍ	-9.44662
문재앙	-9.44745
겠다는	-9.44865
▁봐도	-9.44908
▁눈치	-9.44931
만명	-9.4494
▁ᅲ	-9.44944
와서	-9.44995
▁없애고	-9.45006
▁뒤통수	-9.45088
▁사용	-9.45111
▁확	-9.45143
▁김대중	-9.45162
하겠지	-9.45202
▁ᄀ	-9.45248
했다고	-9.45268
▁우리의	-9.45274
타령	-9.45285
▁하노이	-9.45287
▁이참에	-9.4546
들과	-9.45488
같	-9.45515
만한	-9.45529
았	-9.45564
▁돈은	-9.45669
▁것들이	-9.45704
자는	-9.45707
▁나와	-9.45733
▁뭐하는	-9.45753
▁닭	-9.45818
▁이상한	-9.45849
▁전세계	-9.45856
듯이	-9.45884
걸로	-9.45898
▁악	-9.45905
린다	-9.45937
▁분명	-9.46049
▁노무현	-9.46089
▁있는거	-9.46178
▁한명	-9.46179
▁국가에서	-9.46187
리고	-9.4621
팔	-9.46286
▁트	-9.46349
머	-9.46438
품	-9.46523
▁가자	-9.46556
▁비교	-9.46563
나서	-9.46606
▁통	-9.4671
▁끼	-9.4679
▁결혼해서	-9.46829
▁망언	-9.46889
▁대부분	-9.46904
세금	-9.46979
▁가면	-9.4702
▁새로운	-9.47044
▁핵은	-9.47178
년동안	-9.47194
▁알면서	-9.47249
▁부칸	-9.47318
축	-9.47334
▁김정은의	-9.47337
o	-9.47375
▁애들이	-9.47377
▁마지막	-9.47388
▁좋다고	-9.47417
▁괜히	-9.47556
▁저거	-9.47753
▁좌빨들	-9.47773
▁평화는	-9.47819
▁낳아서	-9.47822
▁않다	-9.47862
▁가라	-9.4793
지고	-9.47947
▁얼	-9.47991
떨	-9.48123
하려	-9.48142
▁팔	-9.48189
▁때문이다	-9.48219
인가요	-9.48219
▁주장	-9.48233
▁다행이다	-9.48242
▁걸리	-9.48293
빨갱이	-9.48321
▁권력	-9.48343
▁이런거	-9.4841
s	-9.48434
어도	-9.48501
▁임기	-9.48602
없음	-9.48616
잉	-9.48621
▁한테	-9.48623
▁알았	-9.48659
▁ᄌᄅ	-9.488
비핵화	-9.48844
▁뿐	-9.48928
▁아마	-9.49003
협상	-9.49006
▁문재인과	-9.4902
▁살인	-9.49022
▁환경	-9.49039
▁없을	-9.49045
렸	-9.49054
결혼	-9.49081
▁너네	-9.49121
돌	-9.49215
▁받는	-9.49255
▁북이	-9.49431
▁놀	-9.49433
l	-9.49463
▁정신차려라	-9.49464
▁정치인들	-9.49639
으며	-9.4966
▁지옥	-9.49683
▁이딴	-9.49814
▁오토바이	-9.49831
▁넘어가	-9.49876
▁없으니	-9.49923
이라니	-9.49939
량	-9.49997
▁혜택	-9.50013
▁숨기고	-9.50023
▁장난	-9.50141
▁미리	-9.50243
▁3.1	-9.50263
▁모른다	-9.503
▁결정	-9.5041
힘	-9.50483
사건	-9.50559
가지	-9.5076
▁들어가	-9.50819
▁최저임금	-9.50959
~!!	-9.51018
▁돼	-9.51076
가면	-9.511
▁크	-9.51117
중국	-9.51124
▁너는	-9.51245
▁장사	-9.51313
단다	-9.51315
▁국민들을	-9.51325
시대	-9.51381
천만	-9.51416
▁맞서	-9.51434
▁결혼도	-9.51452
▁나올	-9.51452
7	-9.51468
넘들	-9.51525
▁처음부터	-9.51537
시길	-9.51599
깨	-9.51627
받아	-9.51631
짝	-9.51644
▁몰	-9.51668
▁애가	-9.51674
▁추가	-9.51689
▁빠	-9.51702
▁표정	-9.51717
눈	-9.51718
짐	-9.51757
풍	-9.51797
▁좌	-9.51822
층	-9.51844
▁뭐라	-9.51866
▁할수	-9.51883
▁준	-9.51903
겠군	-9.51963
잇	-9.52063
▁결과가	-9.52145
;	-9.52166
습	-9.52177
▁달라	-9.52357
▁정책을	-9.52394
하러	-9.52403
▁힘들다	-9.5241
ᅮᅮ	-9.5243
쥐	-9.52431
▁재인아	-9.52485
▁저게	-9.52488
▁선거	-9.52498
있음	-9.52511
는것도	-9.52566
▁안돼	-9.52599
▁타령	-9.5264
▁뭔지	-9.52669
▁0	-9.52708
수록	-9.52721
▁보인다	-9.52764
줘라	-9.52902
하지만	-9.52904
▁낫다	-9.52977
▁바라	-9.53012
▁싶은	-9.53035
▁각	-9.53089
리는	-9.5309
▁돈만	-9.53118
▁속이	-9.53146
움	-9.53155
▁버닝썬	-9.53219
▁하세요	-9.53221
▁희망이	-9.53316
▁꼼수	-9.53335
극	-9.5345
▁똑같은	-9.535
생활	-9.53532
▁김돼지	-9.53546
ᄂ	-9.53571
▁전략	-9.53606
▁지난	-9.53796
▁행동	-9.539
투	-9.53936
▁쓰는	-9.53976
징	-9.5402
시켜라	-9.54029
들만	-9.54042
어요	-9.54047
▁정치인	-9.54176
▁승리가	-9.54283
▁버	-9.54295
▁오세훈이	-9.54335
▁의지	-9.54396
▁재인이	-9.54404
▁검사	-9.54417
▁인권	-9.5445
▁박정희	-9.54464
라서	-9.54568
▁즉	-9.54615
▁해제	-9.54787
▁도움	-9.54806
▁나라의	-9.54968
황	-9.55016
▁일반	-9.55032
잡아	-9.55038
할려고	-9.551
사업	-9.55174
▁웃	-9.55186
쓰고	-9.55193
▁있을까	-9.55219
▁대신	-9.55233
,,,,	-9.55238
▁담	-9.55256
군요	-9.55268
있나	-9.55285
▁명	-9.5531
▁대한민국은	-9.55315
▁관	-9.55324
▁핵이	-9.55375
▁몰아	-9.55418
▁갔	-9.55511
▁결	-9.5562
기가	-9.55689
▁수준이	-9.55723
라니	-9.5576
▁뒤로	-9.55772
▁배달비	-9.55812
▁원장	-9.55815
▁러시아	-9.5582
즈	-9.5584
▁만약	-9.55894
결과	-9.55907
▁김정은이가	-9.55907
0	-9.55926
▁돌려	-9.56011
년이	-9.56042
했냐	-9.56068
▁어제	-9.56113
▁정부에서	-9.56138
에서는	-9.56195
▁희망	-9.56461
국민들	-9.56499
▁적당히	-9.5659
▁자유당	-9.56603
▁쓴	-9.56607
▁지급	-9.56637
▁자살	-9.56644
▁짱깨	-9.5665
▁남편	-9.56728
▁싶	-9.56734
▁넘어	-9.56869
▁나라냐	-9.56928
▁마치	-9.56952
▁가격	-9.56965
▁맞다	-9.56982
동안	-9.56984
폭	-9.57011
삼	-9.57081
▁타고	-9.5718
▁영변핵시설	-9.57213
왕	-9.57268
▁풀	-9.57286
출산	-9.57287
▁똑바로	-9.57349
▁살아라	-9.57401
자고	-9.57433
▁생각하고	-9.57448
▁에라이	-9.57535
▁시간이	-9.57577
▁자한당은	-9.57601
▁가야	-9.57626
준다	-9.57645
▁국공립	-9.57692
▁셋	-9.57704
하길	-9.57745
▁수도	-9.57766
좋아	-9.57777
▁떨	-9.57795
▁역	-9.57817
▁기회	-9.57819
▁대단하다	-9.57866
랄	-9.57888
▁하려고	-9.57904
을때	-9.5792
짜	-9.5794
▁하겠냐	-9.57989
구먼	-9.58109
▁나오는	-9.5814
▁협박	-9.58175
▁아이가	-9.58178
▁진행	-9.58197
9	-9.58228
▁대충	-9.58269
포기	-9.58337
▁쓸	-9.58337
▁파악	-9.58338
▁국민세금	-9.5838
▁그만하고	-9.58519
▁전화	-9.58548
▁주면	-9.58585
▁조용히	-9.58791
▁빈	-9.58813
▁뒷통수	-9.58902
꾸	-9.59024
김	-9.59077
▁뭐하냐	-9.59181
▁안하는	-9.59184
▁졸라	-9.59193
비용	-9.59257
찬	-9.59388
▁모르	-9.5949
▁비싸	-9.59541
전쟁	-9.59559
▁하다가	-9.59559
술	-9.59599
▁했	-9.59599
성이	-9.59676
▁사는게	-9.59698
▁없습니다	-9.59743
▁남은	-9.59746
▁따로	-9.59765
▁대응	-9.5993
▁조작이래	-9.59995
▁필요한	-9.6
▁나온	-9.60063
다면	-9.60091
▁하던	-9.60101
줘야	-9.6012
▁갖다	-9.60178
▁남의	-9.60291
▁어쩌냐	-9.60307
▁그돈	-9.6031
▁뽑아	-9.60375
앙	-9.60451
▁있어서	-9.60488
ᅮ	-9.60499
▁좃	-9.60521
▁뿌리	-9.60596
▁아가리	-9.60643
▁속이고	-9.60675
▁느그	-9.60682
했을	-9.60707
먹는	-9.60708
▁줘라	-9.6073
두고	-9.60797
▁핵보유국	-9.60872
▁제거	-9.60969
▁또라이	-9.61014
▁알지	-9.61024
▁취	-9.61118
▁정당	-9.61119
▁....	-9.61123
줬	-9.61139
▁양보	-9.61144
▁입장	-9.61162
▁경제가	-9.61183
더라도	-9.61278
▁조만간	-9.61392
▁오르	-9.61411
▁한국이	-9.61413
느	-9.61491
▁=	-9.61616
▁문죄앙	-9.61639
▁올라가	-9.6164
▁지역	-9.61684
▁정책이	-9.61745
▁떨어지	-9.61777
▁심각한	-9.61795
▁거다	-9.61898
▁이름	-9.61943
놈들이	-9.6198
딱	-9.61998
▁교	-9.62006
▁국회의원	-9.62018
▁꼴통	-9.62181
▁수가	-9.62297
▁여론	-9.62332
▁죄인이	-9.62333
▁뭐라고	-9.62343
▁비핵화가	-9.62345
▁만드는	-9.62351
여자	-9.62365
▁오래	-9.62382
▁문재앙과	-9.62432
총	-9.62466
▁알았다	-9.62578
▁힘을	-9.62581
▁외국인	-9.62662
▁힘들어	-9.62713
▁수입	-9.62716
▁노인	-9.62735
▁이래서	-9.6278
▁북으로	-9.6279
▁학부모	-9.62837
▁논리	-9.62994
▁더욱	-9.63068
▁신경	-9.6313
려나	-9.63145
폐	-9.63186
▁평양	-9.63223
▁와이지	-9.63225
▁여자들이	-9.63257
였는데	-9.63291
▁~~	-9.63431
▁9	-9.63465
n	-9.63483
▁키우	-9.63486
▁쉬	-9.635
▁검찰	-9.63601
테니	-9.63626
▁그것	-9.63636
▁자유민주주의	-9.63643
▁사교육비	-9.63664
▁둘째	-9.63673
▁해외	-9.63758
▁걸린	-9.63775
▁풀어	-9.63781
▁희생	-9.63824
▁정의	-9.63828
골	-9.63834
하는것	-9.63891
▁최순실	-9.63894
▁빠져	-9.63904
탄핵	-9.63928
하겠네	-9.63956
▁압박	-9.64012
▁역대	-9.64069
겠니	-9.6414
▁않나	-9.64195
▁되는데	-9.64217
▁크게	-9.64258
▁북조선	-9.64276
밥	-9.64351
▁독재자	-9.64385
▁칼	-9.6439
▁개뿔	-9.64512
30	-9.64513
전에	-9.6456
▁네	-9.64608
낼	-9.64673
됐다	-9.64678
▁최소	-9.64691
20	-9.64701
▁공감	-9.64708
지면	-9.64736
▁문어벙	-9.64758
▁해주	-9.6482
▁뭉가	-9.64909
▁순	-9.64936
▁보도	-9.6495
을듯	-9.64959
▁부부	-9.64968
▁이해가	-9.6499
곤	-9.65054
▁다니	-9.65107
적이	-9.65149
▁경제는	-9.65244
▁무장해제	-9.65269
시다	-9.65299
▁어쩔	-9.65312
▁중국에	-9.65437
▁쪽	-9.65564
▁엄청난	-9.65588
▁있는게	-9.65625
하구	-9.65651
▁짓거리	-9.65697
▁기억	-9.65729
정말	-9.65737
천만원	-9.65768
▁받은	-9.65775
▁직	-9.65805
▁애낳	-9.65809
▁해봐라	-9.65842
▁대책	-9.65877
겠어	-9.65902
놓은	-9.66028
▁헐	-9.66037
제발	-9.66073
▁산다	-9.66161
대는	-9.66174
▁놈들이	-9.66208
들한테	-9.66246
▁퍼주	-9.6629
p	-9.6645
▁재선	-9.66451
떼	-9.66479
▁생각은	-9.66494
걱정	-9.66525
뒤	-9.66581
잔	-9.66585
싶	-9.66604
▁운전대	-9.66626
▁김정은과	-9.66631
▁바람	-9.6665
써	-9.66677
하겠냐	-9.66811
▁최악	-9.66833
율	-9.66843
이든	-9.66858
▁높	-9.66865
득	-9.66895
▁받을	-9.66965
▁설득	-9.66974
▁공기	-9.67076
▁곳	-9.67188
핵시설	-9.67201
끝	-9.67284
▁정권이	-9.67311
▁감시	-9.67371
있으면	-9.67394
놀	-9.67408
▁가고	-9.67574
▁절	-9.67584
▁박그네	-9.67636
플	-9.67654
받는	-9.67679
빼	-9.67867
▁ᅮᅮ	-9.67939
▁빼고	-9.67941
▁학원	-9.67957
▁진보	-9.67962
▁있어라	-9.68114
셨	-9.68122
▁모른척	-9.68168
▁그만해라	-9.68196
▁구라	-9.68213
▁돌아가는	-9.68223
▁생산	-9.68223
▁위협	-9.68224
으니까	-9.68225
▁없다는	-9.68351
▁이유는	-9.68351
것을	-9.68387
▁늦	-9.68412
든지	-9.68419
▁철	-9.68432
땅	-9.68473
▁포기할	-9.68569
방송	-9.68572
치는	-9.68736
십	-9.68762
▁인도	-9.68819
둥	-9.68863
▁진실	-9.68882
▁한미	-9.68887
틀	-9.68889
▁점	-9.68893
▁많네	-9.68948
▁동네	-9.68964
당이	-9.69052
▁밑장빼기	-9.69129
▁힘들게	-9.69214
▁폐	-9.69258
▁갖	-9.69261
▁됨	-9.69301
▁중국이	-9.69309
.......	-9.69313
▁겁나	-9.69316
▁치매	-9.69388
▁연기	-9.69409
▁겨우	-9.69422
▁간다	-9.69468
떠	-9.69474
▁얘	-9.69504
▁보장	-9.69514
▁노릇	-9.69549
▁적화통일	-9.69586
▁태극기부대	-9.69678
그러	-9.69716
▁반성	-9.6975
▁200	-9.698
▁못한다	-9.69849
▁위험	-9.69866
▁전투를	-9.69885
▁힘든데	-9.69944
▁불러	-9.69948
▁있었다	-9.70018
것처럼	-9.70053
▁부족	-9.70066
아이	-9.70109
▁고민	-9.70111
▁애낳으면	-9.70161
▁쥐	-9.70186
▁대출	-9.70202
▁노후	-9.70235
▁틀딱들	-9.70249
하려는	-9.70305
▁앞	-9.70324
버린	-9.70343
▁증가	-9.70415
▁취급	-9.70434
많이	-9.70571
▁싸움	-9.70588
▁해피벌룬	-9.70675
이네요	-9.70704
▁카드	-9.70717
까봐	-9.70738
▁몰라	-9.70801
▁교육비	-9.70804
았다	-9.70809
▁있었	-9.70904
▁인간들이	-9.70945
▁완화	-9.70968
▁개돼지들	-9.70973
잡고	-9.70989
풀	-9.71041
▁기분	-9.71118
아닌	-9.7114
▁티비	-9.71312
▁설	-9.71324
보소	-9.71326
앗	-9.71368
조사	-9.71418
엇	-9.71441
▁문정권	-9.71441
때까지	-9.71489
▁동안	-9.71504
▁내용	-9.71577
상황	-9.7158
▁여성부	-9.71588
취	-9.71662
▁한거	-9.7175
▁왔	-9.71797
웃	-9.71849
좋	-9.71959
▁정작	-9.72135
▁진정	-9.72177
▁김일성	-9.72231
▁살게	-9.72269
▁민	-9.72331
할것	-9.72339
려서	-9.72348
▁누	-9.72373
▁대깨문	-9.72458
▁최악의	-9.72552
께서	-9.72562
▁기득권	-9.72607
▁지금의	-9.72678
▁사상	-9.72825
관계	-9.72855
나면	-9.72883
밀	-9.72893
▁보기	-9.72913
정신	-9.72967
없네	-9.72997
이라면	-9.7301
~~~~~	-9.7301
▁누굴	-9.73026
▁아이고	-9.73105
▁제재를	-9.73118
▁재앙이는	-9.7316
▁역적	-9.73178
▁애들은	-9.73235
▁아빠	-9.73293
▁높은	-9.73332
▁생활	-9.73362
▁애도	-9.73368
철	-9.73408
▁옛날	-9.73427
▁사과	-9.73432
블	-9.73437
▁자빠졌네	-9.73557
▁인터넷	-9.73676
▁싶겠냐	-9.73714
▁야당	-9.73776
▁연금	-9.73823
▁세대	-9.73959
▁거리	-9.7399
▁처리	-9.74062
▁자체	-9.74104
▁결혼하면	-9.74106
▁척	-9.74131
▁국민연금	-9.74158
하는지	-9.7417
▁많은데	-9.74236
▁국회	-9.74299
▁양심	-9.74315
됐네	-9.74327
짓거리	-9.7434
▁소득	-9.74379
내려	-9.74456
거라고	-9.74458
▁식	-9.74462
안하고	-9.7448
▁몰랐	-9.74511
▁설마	-9.74524
▁최대	-9.74546
▁자식들	-9.74591
▁유럽	-9.74618
▁통일이	-9.74661
찌	-9.74662
사는	-9.74714
까요	-9.74735
▁동남아	-9.74742
▁하더니	-9.74777
갑	-9.74849
▁어케	-9.74883
▁북한만	-9.74985
▁모든게	-9.74992
▁이명박	-9.75031
r	-9.75233
▁생각한다	-9.75281
▁붙	-9.753
했으니	-9.75401
▁보이	-9.75432
▁제목	-9.75433
년전	-9.7544
측	-9.75455
땜에	-9.75464
찍	-9.75483
▁살려	-9.75513
▁낙태	-9.75532
일뿐	-9.7558
▁이정도면	-9.75657
알고	-9.75676
분들	-9.75691
갔	-9.75726
▁지도자	-9.75733
향	-9.75752
▁경우	-9.75784
▁집에서	-9.75801
▁먹을	-9.75804
▁올인	-9.75806
▁출신	-9.75822
▁A	-9.75837
▁클럽	-9.75877
▁신경쓰	-9.75914
아님	-9.7592
▁애들을	-9.75953
체제	-9.76011
한것	-9.76068
▁맘대로	-9.76094
햇	-9.76112
▁없었다	-9.76124
관련	-9.76163
얘기	-9.76226
때마다	-9.76233
50	-9.76245
▁촛불	-9.7627
승리	-9.76362
▁있다면	-9.76408
기전에	-9.76418
있으니	-9.76447
보다는	-9.76464
▁정치를	-9.76468
된거	-9.76477
▁매일	-9.765
▁한국에서	-9.76526
▁일본이	-9.76565
▁문슬람들	-9.76571
▁안낳	-9.7661
▁안전	-9.7662
▁미국도	-9.76635
▁키우기	-9.76665
▁목숨	-9.76679
어야지	-9.76699
▁대단한	-9.7673
▁발표	-9.76755
▁굳이	-9.7682
▁너희	-9.7689
타고	-9.76915
▁안하면	-9.76936
련	-9.76937
▁정부의	-9.76941
▁당연	-9.7697
▁눈에	-9.76984
같다	-9.7701
▁인물이	-9.77063
▁불안	-9.7716
닥	-9.77168
▁평화쇼	-9.77221
▁탈	-9.77232
▁지구	-9.77291
▁끌어	-9.77296
▁문재인을	-9.77344
▁키우는	-9.77445
▁맛	-9.77451
▁사실을	-9.77503
일본	-9.77509
는건데	-9.77514
▁개방	-9.776
기로	-9.77688
독재	-9.7777
▁설명	-9.77791
▁있지만	-9.77798
있네	-9.77874
▁피해	-9.77892
이여	-9.779
▁악마	-9.77909
▁한국의	-9.77952
▁친북	-9.78018
▁시진핑	-9.78072
익	-9.78075
났	-9.78076
▁갈등	-9.78125
▁똑같이	-9.78196
▁받았	-9.78199
▁여당	-9.78201
▁집값이	-9.78205
▁쫌	-9.78276
▁떼	-9.78303
쓸	-9.78312
▁아무도	-9.78321
▁데리고	-9.78334
▁어디로	-9.78339
▁가능	-9.78363
렁	-9.78371
▁무시	-9.78376
▁배달료	-9.78407
는거냐	-9.78458
▁김정은을	-9.7858
▁되었	-9.78585
스럽다	-9.78607
▁썩은	-9.78646
▁나오면	-9.78658
메	-9.78682
▁친구	-9.78733
▁생각도	-9.78813
▁만날	-9.78838
달라	-9.78858
d	-9.78873
여성	-9.78874
▁무서운	-9.78888
되는거	-9.78904
▁좌좀	-9.78925
▁무식한	-9.78946
때부터	-9.78986
▁거기에	-9.78995
봉	-9.79007
▁십	-9.79039
꺼다	-9.79082
▁문빠들	-9.79105
▁하락	-9.79186
▁부모들	-9.79192
자리	-9.79193
▁철수	-9.79197
해주고	-9.7925
▁강력한	-9.79255
▁숨겨	-9.79295
덕	-9.79317
▁용	-9.79328
▁있던	-9.79365
▁별로	-9.79569
▁뭐니	-9.79604
▁당신이	-9.79627
▁여러분	-9.79694
없으면	-9.79796
▁서비스	-9.79796
무슨	-9.79818
외교	-9.79822
▁말은	-9.79824
▁좌파들	-9.79832
▁올리	-9.79862
▁심판	-9.79882
▁정은	-9.79901
▁봐야	-9.79913
▁끝나	-9.79931
▁문대통령님	-9.79973
▁북한으로	-9.79994
테	-9.79999
▁감소	-9.80005
▁성과	-9.80033
▁낳은	-9.80066
▁잘못된	-9.80134
시키는	-9.80153
세대	-9.80172
▁관광	-9.80182
꾼	-9.80186
▁죽이고	-9.80233
▁죽어	-9.80238
▁봄	-9.80245
▁색	-9.80256
해결	-9.80308
▁작	-9.80316
▁트럼프에게	-9.80335
▁망신	-9.80408
건가요	-9.80421
▁같아	-9.80442
거면	-9.80453
▁출산을	-9.80462
끄	-9.80526
▁망할	-9.80651
▁대해서	-9.80669
▁뭐하나	-9.80703
▁이러	-9.80807
▁존	-9.80844
▁했던	-9.80877
만원씩	-9.80951
▁믿지	-9.81126
▁광주	-9.81152
례	-9.8117
▁자한당이	-9.81207
긋	-9.81245
▁한마디	-9.81284
▁모습	-9.81328
▁하는지	-9.81342
▁대국민	-9.81439
▁맘	-9.81483
▁잘한다	-9.8149
▁나온다	-9.81494
▁ᅵ	-9.81572
▁우리나라가	-9.81586
쉬	-9.81592
▁북한한테	-9.81639
▁집중	-9.81642
▁뿐이다	-9.81645
▁사랑	-9.81662
▁가만	-9.81663
▁투표	-9.81704
▁책임을	-9.81732
였	-9.81782
셔	-9.81864
▁인물	-9.81877
많	-9.81878
▁자국민	-9.81981
▁한두번	-9.82062
뉴스	-9.82064
y	-9.82138
▁했으면	-9.82259
c	-9.82266
▁하기	-9.82269
믄	-9.82275
▁왕	-9.8228
▁GP	-9.82288
가라	-9.82343
▁뒤지	-9.8245
▁/	-9.82515
▁의미	-9.8254
▁자리	-9.82558
휴	-9.82638
사기	-9.82677
▁해주세요	-9.82703
▁당선	-9.82726
▁지지하는	-9.82864
▁하늘	-9.82889
▁폐지	-9.82946
▁철저히	-9.82989
▁이것	-9.83015
▁씹	-9.83018
보는	-9.83021
▁어느나라	-9.83031
▁봅니다	-9.83059
▁100%	-9.83164
▁약속	-9.83175
광	-9.83206
m	-9.83217
▁기어	-9.83232
▁개선	-9.83249
▁한방	-9.8329
만들	-9.83398
▁연예인	-9.83408
▁올해	-9.83417
▁+	-9.83422
▁마시	-9.83431
▁서민들	-9.83445
▁있었는데	-9.83517
딸	-9.83519
세상	-9.83571
▁떠나	-9.83596
▁끝났다	-9.83625
낸	-9.8363
▁한국에	-9.83672
혼	-9.83687
▁폐원	-9.83697
▁양현석	-9.83709
▁줘	-9.83777
▁문죄인이	-9.83786
▁광	-9.83787
▁이러니	-9.83817
에겐	-9.83837
능	-9.83922
▁민노총	-9.83923
▁목표	-9.83955
▁어쩌	-9.84048
▁폭격	-9.84112
▁남자들이	-9.84125
대가	-9.84165
그만	-9.84194
▁데	-9.84285
▁금	-9.84299
▁미군	-9.84345
▁숨겨놓고	-9.84353
브	-9.84373
▁재앙이가	-9.84394
▁라고	-9.84431
하거나	-9.84442
▁결렬된	-9.84469
싶다	-9.845
▁경제나	-9.8451
겠구나	-9.84511
준비	-9.84521
▁OLED	-9.84636
느니	-9.8465
▁죽이	-9.84671
아닌가	-9.84704
▁북은	-9.84809
▁찍	-9.84855
▁메	-9.84949
됩니다	-9.84961
▁없냐	-9.85045
에서도	-9.85056
▁천천히	-9.85098
맛	-9.85118
슬	-9.85158
갔다	-9.8517
그럼	-9.85211
▁논	-9.85225
▁영화	-9.85238
시고	-9.85282
▁이래도	-9.85311
▁페미니즘	-9.85319
좋은	-9.85345
▁어려운	-9.85356
▁대박	-9.85404
▁자기들	-9.85421
▁보자	-9.85421
것같다	-9.85521
르고	-9.85537
났다	-9.85564
▁정리	-9.85589
겠습니다	-9.85603
▁선언	-9.85616
▁장사꾼	-9.85661
냐고	-9.85686
▁강제	-9.85714
놨	-9.85795
▁대통령을	-9.85867
▁뽑	-9.8594
▁통수	-9.8596
▁차려라	-9.85976
▁김칫국	-9.85989
▁보통	-9.86004
져서	-9.86076
합의	-9.86131
▁한다는	-9.86182
▁오지	-9.86183
▁이명박근혜	-9.86245
▁장관	-9.86252
▁뽑은	-9.86257
정당	-9.86307
▁아닙니다	-9.86328
묵	-9.86335
희	-9.86427
▁단어	-9.86454
▁위기	-9.86464
ᄅ	-9.86509
착	-9.86591
▁않았	-9.86624
바라	-9.86651
▁이쯤되면	-9.86663
▁여자들은	-9.86712
▁하며	-9.86748
▁에듀파인	-9.86753
▁힘들고	-9.86804
▁뒷	-9.86805
▁한심	-9.86877
▁뒤에	-9.86893
▁체제	-9.86896
▁해야한다	-9.86934
▁이것도	-9.87008
달라고	-9.87053
었네	-9.87137
별	-9.87142
누가	-9.87195
▁핵무장	-9.872
▁뒤에서	-9.87314
송	-9.87433
▁각종	-9.87468
▁똥줄	-9.87509
▁키	-9.8751
ᄒᄒᄒ	-9.87526
▁두번	-9.87546
▁걷어	-9.87554
▁봐	-9.87578
▁맞지	-9.87594
▁강화	-9.87643
올라	-9.87647
받을	-9.87662
시작	-9.87683
▁됐	-9.87684
▁회담결렬	-9.87743
▁짜	-9.87787
▁내부	-9.878
▁싫	-9.87835
▁이대로	-9.87849
▁손해	-9.87857
인구	-9.8786
때는	-9.87881
▁문제지	-9.87954
▁미국한테	-9.87982
▁그만큼	-9.88001
▁키울	-9.8804
▁문제를	-9.88052
역할	-9.88079
유공자	-9.881
응	-9.88132
▁출산율은	-9.88135
▁됩니다	-9.88145
▁축	-9.88156
▁미래를	-9.88167
자금	-9.88192
▁여러	-9.88195
u	-9.88244
▁낳는다	-9.88262
운동	-9.88369
▁세금을	-9.88412
▁아는데	-9.88422
나게	-9.88522
▁효과	-9.88525
이게	-9.88642
▁결국은	-9.88652
▁집안	-9.88657
▁15	-9.88688
▁밀어	-9.8882
입니까	-9.88968
▁한국인	-9.88969
▁문화	-9.8901
절대	-9.89162
▁주변	-9.89163
해보	-9.89168
▁인상	-9.89215
수있는	-9.89219
▁만남	-9.8925
▁비용	-9.89261
▁폐쇄	-9.89288
아니냐	-9.89306
그런	-9.89316
줘서	-9.89418
▁모르겠다	-9.89418
▁갑질	-9.89423
▁보조금	-9.89499
▁병원	-9.89514
▁트럼프와	-9.89559
▁여행	-9.89559
▁거기	-9.89568
▁직업	-9.89578
되었	-9.89689
만나	-9.89702
뜨	-9.89731
지마	-9.89839
▁영원히	-9.89842
▁그러나	-9.89863
▁운전자론	-9.89876
것다	-9.89888
둔	-9.8989
▁낮	-9.89906
▁유일한	-9.89933
▁지지합니다	-9.89942
▁아나	-9.89974
▁저리	-9.9002
▁남북경협	-9.90021
▁챙기	-9.90128
▁맞아	-9.90169
▁계	-9.90174
네ᄏᄏ	-9.90245
▁자신	-9.90286
랬	-9.90331
▁중요	-9.90335
▁마련	-9.90364
당한	-9.90385
▁하겠지	-9.90392
▁커	-9.90421
버리	-9.90445
속에	-9.90467
▁잇	-9.90473
▁하게	-9.90516
▁싹다	-9.90536
▁믿어	-9.90543
단체	-9.90575
접	-9.90611
▁안될	-9.90619
▁정신나간	-9.90655
하겠다고	-9.90661
님들	-9.90678
▁축하합니다	-9.90684
느냐	-9.90747
▁국민들의	-9.90752
▁욕하는	-9.90764
▁차리	-9.90794
▁좌좀들	-9.90847
역시	-9.90865
▁지키	-9.90873
있다고	-9.90913
▁견찰	-9.90948
▁변명	-9.90991
▁않았다	-9.91001
▁정보력	-9.91012
나오	-9.91051
▁한남	-9.91056
식으로	-9.91091
▁핵심	-9.91135
▁탄	-9.91136
▁국민들에게	-9.91363
▁핵보유	-9.91407
아서	-9.91433
▁하라고	-9.91475
▁연애	-9.9148
▁남조선	-9.91493
명당	-9.91506
▁면제	-9.9152
▁추진	-9.91562
▁마세요	-9.91564
▁오직	-9.91602
▁몰랐을까	-9.91602
마냥	-9.91652
?????	-9.91665
▁한번도	-9.91671
▁남자는	-9.91722
지않	-9.91743
길래	-9.91845
▁이후	-9.9187
▁아닌가요	-9.91876
▁걸렸	-9.91899
▁미북회담	-9.91939
▁싶어	-9.9195
억씩	-9.91993
▁원인	-9.91993
한거지	-9.91997
▁염병	-9.92056
늠	-9.9207
▁살인마	-9.92076
여서	-9.92081
▁모를	-9.92084
▁그러니까	-9.92117
쟁이	-9.92124
▁낳으라고	-9.92158
▁특	-9.92187
▁틀	-9.92222
▁폭파	-9.92243
▁ᄋ	-9.92267
▁느낌	-9.9227
되는데	-9.92276
률	-9.92314
▁기사를	-9.92344
▁축하	-9.92421
▁감옥	-9.92423
년들	-9.92487
베	-9.92499
▁합	-9.92511
혜택	-9.92546
는것이	-9.92553
▁헬	-9.92555
▁보여	-9.92587
▁복	-9.92611
▁포함	-9.9266
▁일어나	-9.92717
▁없어요	-9.92741
기업	-9.92834
▁너도	-9.92906
▁있게	-9.92947
▁시키고	-9.92949
▁자국	-9.92979
▁못할	-9.93011
▁기레기들	-9.93015
인들	-9.9304
▁어디에	-9.93096
▁국민에게	-9.93121
▁충분히	-9.93153
▁아이들이	-9.93155
가족	-9.93169
▁그랬	-9.93172
▁붕괴	-9.93189
아니면	-9.93266
▁돌리	-9.93311
▁도로친박당	-9.93336
걸까	-9.93366
▁떡	-9.93398
▁주식	-9.9341
▁민주	-9.93478
▁!!	-9.93484
하네요	-9.93488
자한당	-9.93496
액	-9.93588
준다고	-9.93591
자식	-9.93621
▁증명	-9.93642
천원	-9.93666
▁짜고	-9.93692
▁역사	-9.93713
▁합시다	-9.93725
▁뜨	-9.93781
사진	-9.93831
하지않	-9.93836
▁하긴	-9.93879
▁나와서	-9.93901
▁많아서	-9.93935
시킨	-9.93942
▁공장	-9.93948
▁디	-9.93956
돈으로	-9.93956
▁뇌	-9.93996
▁사기극	-9.94012
▁치열한	-9.94028
▁정상적인	-9.94043
▁매우	-9.94048
▁시켜	-9.94081
▁비판	-9.94097
▁부들부들	-9.941
님이	-9.94137
졌다	-9.94169
빵	-9.94249
▁오지게	-9.94285
▁젤	-9.94311
▁내로남불	-9.94313
결국	-9.94396
▁일은	-9.94429
가며	-9.94452
▁팔아	-9.94502
▁한게	-9.9451
▁알고있었	-9.94581
▁똥줄타	-9.94602
▁위장	-9.94688
▁이기	-9.94706
한건	-9.94737
탕	-9.94743
▁먹고살기	-9.94788
▁똥꼬	-9.94846
▁기만	-9.94884
민주당	-9.94903
▁분노	-9.94904
이었다	-9.94933
지역	-9.94936
▁속여	-9.95014
▁적극	-9.95022
▁한유총은	-9.95034
▁이미지	-9.95051
못하는	-9.9507
▁시스템	-9.95103
▁초딩	-9.95141
짓을	-9.95145
▁사람을	-9.95155
▁바뀌	-9.95166
간첩	-9.95186
▁접	-9.95202
좌파	-9.95241
▁사태	-9.95347
▁유치원을	-9.95434
하긴	-9.95544
▁폭	-9.95584
▁자주	-9.95596
▁고통	-9.95625
▁태어나	-9.95635
▁팍팍	-9.95677
▁서명	-9.95771
였네	-9.95797
▁협의	-9.95798
▁큰일	-9.95833
▁제제	-9.95865
▁알았는데	-9.95878
거죠	-9.95888
▁딜	-9.95892
▁재미	-9.95895
▁미북	-9.95939
▁수구	-9.95962
▁낼	-9.95966
▁청	-9.95995
▁교육자	-9.96033
▁통계	-9.9605
나라가	-9.96059
▁응원	-9.96125
▁재개	-9.9614
너무	-9.96172
▁댓글조작	-9.96182
▁싶지	-9.96235
▁빨아	-9.96243
▁알았냐	-9.9626
▁저러	-9.96296
▁다행	-9.96384
▁혹	-9.9639
폐기	-9.96392
▁죽은	-9.96418
경찰	-9.96431
▁보유	-9.96462
▁돈도	-9.96491
▁학	-9.96561
▁개망신	-9.96577
쳐서	-9.96605
사고	-9.96608
▁자기가	-9.96613
▁이번엔	-9.96679
정보	-9.96682
▁권리	-9.96738
▁또한	-9.96767
충들	-9.96795
▁봤	-9.96824
▁중국발	-9.9685
시오	-9.96862
카드	-9.96889
이며	-9.96902
▁생각만	-9.96906
및	-9.96913
했어	-9.96954
▁어떻게든	-9.96955
▁첫	-9.96975
▁출	-9.97062
끼들	-9.97088
▁친박	-9.97111
▁돼지가	-9.97179
했음	-9.9718
▁세력	-9.97196
▁좋아요	-9.97244
▁규제	-9.97296
렸다	-9.97325
▁두드러기	-9.97365
▁정권을	-9.97425
세계	-9.97427
▁안낳는	-9.97436
▁지원을	-9.97441
▁사실상	-9.97618
▁키우고	-9.97632
ᄇ	-9.97674
겠어요	-9.9773
쓰레기	-9.97731
▁전두환	-9.97761
▁핵실험	-9.97778
▁민생	-9.97801
▁낳냐	-9.97808
▁선진국	-9.97826
했나	-9.9796
▁몇년	-9.97967
▁말만	-9.97976
▁경찰이	-9.97983
슈	-9.98004
▁확실한	-9.98025
▁임금	-9.98063
봄	-9.98075
▁으	-9.98151
많은	-9.98175
▁협상을	-9.98175
▁파괴	-9.98235
;;;	-9.98247
▁그렇	-9.98285
▁교육을	-9.98314
▁신고	-9.98416
▁뭐하러	-9.98419
▁통해	-9.98476
▁미쳐	-9.98515
▁약국	-9.98542
▁부모가	-9.98584
▁격	-9.98606
▁졸	-9.98649
없지	-9.98658
인이	-9.98705
▁현실을	-9.98722
시절	-9.98751
명이	-9.98798
못해	-9.9881
▁결혼은	-9.98819
▁사회적	-9.9892
▁변화	-9.98929
▁꾸	-9.98951
잖아요	-9.98951
▁꼬봉	-9.98976
▁최	-9.99086
트럼프가	-9.99147
▁망한다	-9.99167
▁국정원	-9.9917
▁LG	-9.9917
▁절반	-9.99202
▁뻔히	-9.99215
쯤	-9.99266
▁빚	-9.9928
▁문재인씨	-9.99339
▁개가	-9.99348
▁살아야	-9.99383
논	-9.99396
▁죽여	-9.99441
부모	-9.99511
ᄍ	-9.99537
▁현정부	-9.99586
커	-9.99603
▁2.	-9.99705
▁짱	-9.99709
▁떨어질	-9.99728
▁말로	-9.99729
▁이럴	-9.99761
는건지	-9.99763
▁공약	-9.99796
▁걷	-9.99813
고있다	-9.99862
깔	-9.99862
이래	-9.99885
▁ᄊ	-9.99892
혜	-9.99903
힌	-9.99934
▁애낳는	-9.99971
줌	-10.001
▁앞에서	-10.0017
▁우습게	-10.0018
▁떨어지는	-10.0021
▁경제도	-10.0026
▁문재인의	-10.0035
▁시기	-10.004
▁모든걸	-10.0041
▁청문회	-10.0046
▁여성들	-10.0049
낳아	-10.0051
▁치고	-10.0053
▁필요하다	-10.0054
기자	-10.0055
!!!!!!	-10.0055
▁어쩌나	-10.0056
▁안되면	-10.0061
ᄃ	-10.0064
아주	-10.0066
▁문재인대통령	-10.0066
▁욕심	-10.0066
▁시절	-10.0068
▁됐다	-10.0074
▁갔다	-10.0074
환경	-10.0082
▁대처	-10.0084
때도	-10.0088
▁지방	-10.009
x	-10.0093
▁되었다	-10.0096
▁밝혀	-10.0097
▁평화통일	-10.0104
▁엄	-10.0109
▁털	-10.0113
▁역할을	-10.0116
▁대단	-10.0116
근데	-10.0116
▁핑계	-10.0118
▁눈물	-10.0121
▁주제에	-10.0122
▁이슈	-10.0125
▁다자녀	-10.0126
▁청와대는	-10.013
했는지	-10.0133
▁휴	-10.0138
▁부탁	-10.0139
거같다	-10.0141
했지만	-10.0142
뇌	-10.0142
▁가난	-10.0146
▁그렇다고	-10.0146
▁올라	-10.0148
▁이루	-10.0149
봤	-10.0158
등등	-10.0159
▁인민들	-10.0162
들어가	-10.0162
▁학부모들	-10.0165
▁헛	-10.0172
▁음	-10.0177
▁모조리	-10.0188
▁중단	-10.0188
▁타협	-10.0189
▁마음이	-10.0193
▁계획	-10.0198
▁태	-10.0204
▁육아휴직	-10.0207
됐	-10.0208
▁들어가는	-10.0209
아야	-10.0211
▁반대하는	-10.022
▁생겼네	-10.0221
사람은	-10.0224
▁마시고	-10.0227
▁한마디로	-10.0228
▁비싼	-10.0234
A	-10.0239
버려라	-10.0239
▁임	-10.0242
람	-10.0246
▁생각하면	-10.0246
▁포기하고	-10.0249
켜	-10.0254
▁혹시	-10.0258
▁인민	-10.0262
▁승리야	-10.0269
▁뭐야	-10.027
냈	-10.0278
댈	-10.0279
▁취직	-10.0282
▁어째	-10.0285
^	-10.0286
▁산아제한	-10.0286
못한	-10.0291
▁전쟁나면	-10.0295
그래	-10.0302
▁않아	-10.0304
▁모르냐	-10.0305
▁건강	-10.0312
이죠	-10.0314
▁그런거	-10.0319
▁사람도	-10.0321
▁쪼	-10.0321
▁찬성	-10.033
▁정권은	-10.0331
뜻	-10.0332
▁당신은	-10.0332
▁막아	-10.0334
▁겁니다	-10.0334
이자	-10.0335
▁받아야	-10.0336
▁실망	-10.0339
▁어이가	-10.0342
▁역시나	-10.0346
▁놈들은	-10.0348
▁보이는	-10.0349
▁단체	-10.0354
▁보여주	-10.0355
▁만들어서	-10.0355
▁시간을	-10.036
우리나라	-10.0365
▁심지어	-10.0372
▁세월호	-10.0372
▁얻어	-10.038
▁이나라는	-10.0383
▁늘어	-10.0383
▁북한이랑	-10.0387
▁뜻	-10.0388
▁문통은	-10.0389
재앙이	-10.0399
▁조건	-10.0401
▁업	-10.0404
▁경제적	-10.0408
▁풍선	-10.0411
냥	-10.0412
▁있어도	-10.0415
셈	-10.0421
▁부정	-10.0423
▁느	-10.0426
었으면	-10.0427
▁할려고	-10.0428
해놓고	-10.0429
▁의무	-10.043
▁보소	-10.0432
▁망해	-10.0443
▁매달	-10.0449
늘	-10.045
▁홍	-10.0451
기고	-10.0455
해주는	-10.0457
▁뇌가	-10.0458
굴	-10.046
할지	-10.0461
렴	-10.0464
▁6.25	-10.0465
▁혼밥	-10.0466
곳이	-10.0467
▁민주당이	-10.0468
▁작은	-10.0468
▁같냐	-10.0473
▁웃고	-10.0474
▁포장	-10.0477
▁비난	-10.048
▁살수	-10.0482
▁놀라	-10.0489
▁널	-10.0489
▁댓글들	-10.0492
▁하려	-10.0493
▁말자	-10.0493
▁압수수색	-10.0499
▁속인	-10.05
▁먼지	-10.0502
▁TV	-10.0505
대표	-10.0506
▁부모님	-10.0509
▁멸망	-10.0511
한다면	-10.0513
▁거부	-10.0514
▁시위	-10.0521
그리	-10.0522
닭	-10.0524
미세먼지	-10.0524
▁없나	-10.0525
ᅵ	-10.0526
되어야	-10.0527
▁군사	-10.0527
▁속고	-10.0532
책임	-10.0533
▁분들	-10.0536
▁주택	-10.0537
▁저기	-10.0541
으려고	-10.0541
▁나왔	-10.0544
▁통제	-10.0551
▁아닐	-10.0555
팅	-10.0559
▁정도로	-10.056
였으면	-10.056
▁밑장	-10.056
▁창	-10.0561
▁투기	-10.0566
▁안다	-10.0568
▁한국을	-10.057
▁가져	-10.0571
▁우려	-10.0572
였음	-10.0576
지지	-10.0579
▁마스크	-10.058
▁현실이	-10.0583
회사	-10.0583
▁아닌지	-10.0585
▁말아	-10.0588
할텐데	-10.0588
▁찍어	-10.0592
▁고소	-10.0592
▁눈이	-10.06
자체가	-10.0602
▁홍어	-10.0603
▁할까	-10.0604
으면서	-10.0605
▁폐업	-10.061
자유	-10.061
▁침	-10.0611
▁프레임	-10.0615
▁총리	-10.0617
▁이익	-10.0618
시킬	-10.0619
떡	-10.0621
▁문재	-10.0623
▁올려	-10.0624
시기	-10.0628
였어	-10.0628
▁게임	-10.0634
▁족	-10.0637
놈들은	-10.0637
▁한계	-10.0641
▁유치원에	-10.0646
▁끝이	-10.065
▁판사	-10.0652
▁않을까	-10.0653
▁혼	-10.0654
겠네요	-10.0656
▁착각	-10.0656
출신	-10.0657
▁의견	-10.0661
▁아웃	-10.0667
▁당하고	-10.0668
▁승리는	-10.067
▁골	-10.0676
▁국정농단	-10.0678
▁협상결렬	-10.0682
▁!!!	-10.0685
처리	-10.0687
▁공사	-10.0699
탁	-10.07
하든	-10.07
▁안됨	-10.0702
▁형님	-10.071
산다	-10.0712
인간들	-10.0713
존	-10.0718
▁하나만	-10.072
▁하는것	-10.0722
▁노동	-10.0727
혼자	-10.0729
▁기자회견	-10.0731
모르	-10.0738
몽	-10.0747
▁것이고	-10.0747
▁답답	-10.0748
▁국가의	-10.0752
▁보호	-10.0753
▁핵폭탄	-10.0754
▁투쟁	-10.0755
▁감사합니다	-10.0757
해봐	-10.0761
하다고	-10.0766
▁먹는	-10.0769
▁전면	-10.077
부리	-10.0782
▁영어	-10.0783
▁하지마	-10.0785
안보	-10.0788
미국이	-10.0793
▁이혼	-10.0794
▁표현	-10.0796
k	-10.08
좌	-10.081
암	-10.0815
▁투	-10.0816
시켜야	-10.0816
▁폭락	-10.0818
▁속아	-10.0822
▁날이	-10.0824
▁최고의	-10.0833
▁상황에서	-10.0834
▁불쌍한	-10.0837
▁미래는	-10.0837
▁굴	-10.0841
▁음식	-10.0841
제도	-10.0842
▁빌	-10.0856
▁달려	-10.0858
▁어느정도	-10.0859
▁생기	-10.0873
하신	-10.0875
▁금강산관광	-10.0876
▁청년	-10.0878
▁아닐까	-10.0881
▁낙	-10.0882
▁내리	-10.0883
▁전세	-10.0897
▁이득	-10.0903
▁가능한	-10.0904
▁마찬가지	-10.0906
▁문재앙의	-10.0907
▁되겠네	-10.0907
것이고	-10.0909
▁걸어	-10.0909
18	-10.0909
▁언론이	-10.0914
▁연봉	-10.0915
먼	-10.0916
b	-10.0916
ᄍᄍᄍ	-10.0922
▁운동	-10.0927
▁꼴페미	-10.0932
수밖에	-10.0936
집값	-10.0938
▁출산정책	-10.0939
▁안달	-10.0939
납	-10.094
팀	-10.0946
더냐	-10.0947
▁정신승리	-10.095
문화	-10.0953
▁~~~	-10.0957
▁면상	-10.0957
▁매국	-10.0958
▁인기	-10.0958
▁비정규직	-10.0963
드는	-10.0972
▁근	-10.0973
남자	-10.0978
쳤	-10.0981
▁불가능	-10.0981
▁문통이	-10.0981
▁마인드	-10.0981
▁만큼	-10.0982
▁언론들	-10.0985
있지	-10.0985
대고	-10.0989
▁대한민국에	-10.099
북한이	-10.0996
▁못하면	-10.0998
장관	-10.1001
▁유치원은	-10.1002
▁싸워	-10.1005
고싶다	-10.1005
▁질질	-10.1007
퇴	-10.101
~~~~~~	-10.1011
▁세우	-10.1014
▁좆	-10.1015
B	-10.102
▁되냐	-10.1027
부분	-10.1028
▁공격	-10.1031
▁선동질	-10.1032
▁지겹다	-10.1045
▁인구감소	-10.1046
다리	-10.1048
▁안되고	-10.1051
▁것으로	-10.1054
▁낮은	-10.1055
아니다	-10.1057
▁재앙이다	-10.1058
▁다르	-10.1059
▁뭣	-10.106
▁어짜피	-10.1062
▁고작	-10.1062
▁베	-10.1067
가자	-10.107
▁손혜원	-10.1074
▁쯧쯧	-10.108
▁예전	-10.108
▁물어	-10.1083
▁공산화	-10.1083
▁힘이	-10.109
겠구만	-10.109
▁없애라	-10.1091
▁했을	-10.1095
▁안타깝다	-10.1099
큰	-10.1099
봤자	-10.1103
줘도	-10.1103
▁주거	-10.1106
▁부르	-10.1108
▁작년	-10.1109
▁최소한	-10.1112
자녀	-10.1116
▁철거	-10.1118
싶어	-10.1119
▁김정은에게	-10.112
▁이념	-10.112
몇	-10.1121
빈	-10.1121
▁차단	-10.1122
노릇	-10.1124
▁결과를	-10.1126
▁안되는데	-10.1127
▁와서	-10.1128
▁여적죄	-10.1129
에만	-10.113
▁경제제재	-10.1131
▁깔	-10.1131
▁나대	-10.1139
▁찾	-10.1142
대가리	-10.1147
년에	-10.1151
▁회	-10.1154
로서	-10.1155
▁영변말고	-10.1155
임을	-10.1156
장이	-10.1161
▁된다고	-10.1163
놔	-10.1164
되니	-10.1164
▁많고	-10.1165
▁더큰	-10.1165
▁초등학교	-10.1167
적이고	-10.117
했겠지	-10.1171
▁안되지	-10.1172
▁일하는	-10.1176
▁왕따	-10.1179
빼고	-10.1179
▁결론	-10.1186
뻔	-10.1189
드라	-10.1192
▁말이다	-10.1192
비리	-10.1194
▁이런데	-10.1199
▁자신의	-10.12
▁거품	-10.12
위해	-10.1201
▁전체	-10.1202
▁상관	-10.1207
▁놀고	-10.1213
▁정권의	-10.1223
▁줘야	-10.1224
▁짱개	-10.1226
▁인구는	-10.1233
▁베댓	-10.1234
슴	-10.1235
▁삶	-10.1244
▁깜빵	-10.1246
▁호들갑	-10.1246
▁인건비	-10.1246
▁Yg	-10.1246
▁발생	-10.1253
~!!!	-10.1259
제재	-10.1263
▁엘지	-10.1265
거같은데	-10.1265
▁상승	-10.1266
장사	-10.1266
재인	-10.1271
▁축하드립니다	-10.1273
▁생명	-10.1273
▁일만	-10.1278
▁생각합니다	-10.1287
분이	-10.1288
잖	-10.129
▁엿	-10.1296
▁안정	-10.1298
▁12	-10.1299
순위	-10.1307
▁실업자	-10.1307
왔다	-10.131
▁물고	-10.1314
▁때문	-10.1315
규	-10.1316
▁본인이	-10.132
▁쏟아	-10.1322
▁빙	-10.1325
▁가려	-10.1326
X	-10.1329
▁대변	-10.1336
▁충	-10.134
년은	-10.1349
▁함부로	-10.1349
▁성장	-10.135
▁대다수	-10.135
▁ᄌᄂ	-10.135
▁지나	-10.1351
▁후회	-10.1354
민족	-10.1356
려다	-10.1358
▁일부러	-10.1362
반대	-10.1366
찰	-10.1371
▁찬양	-10.1372
▁오늘도	-10.1375
하는구나	-10.1375
▁민주당은	-10.1377
........	-10.1379
지랄	-10.1381
▁안해	-10.1386
▁이제부터	-10.1391
통령	-10.1396
▁드라마	-10.1396
▁개념	-10.1401
▁원장들	-10.1408
▁담배	-10.1409
▁났	-10.1415
▁보지	-10.1422
▁ᅢ	-10.1422
▁낸	-10.1431
▁폭등	-10.1433
능력	-10.1433
현실	-10.1436
▁낳기	-10.1436
으려	-10.1438
노예	-10.144
▁풀어주	-10.1444
▁듣	-10.1446
털	-10.1451
▁적와대	-10.1451
▁징계	-10.1452
▁생각해	-10.1453
▁건설	-10.1456
▁분명히	-10.1462
▁줄어들	-10.1463
▁하는건	-10.1465
▁써라	-10.1466
▁태어난	-10.1471
것만	-10.1473
▁하니까	-10.1473
▁여성가족부	-10.1477
져야	-10.148
▁구조	-10.1482
▁바꾸	-10.1485
▁낳겠냐	-10.149
▁열어	-10.1491
▁조국	-10.1492
▁먹었	-10.15
▁협력	-10.1504
▁해결될	-10.1509
팔이	-10.151
▁들여	-10.1514
▁럼프형	-10.1519
▁인증	-10.1522
듣	-10.1525
▁낭비	-10.1528
▁허경영	-10.1529
▁젊은이들	-10.153
▁죽인	-10.1531
하겠다는	-10.1533
▁말인가	-10.1538
할거	-10.1539
인생	-10.1545
▁시장	-10.1546
훈	-10.1553
▁승차거부	-10.1555
▁하라	-10.1559
으론	-10.156
▁쓸데없는	-10.156
▁다시는	-10.1561
▁티	-10.1562
▁죽는	-10.1564
▁환경이	-10.1569
▁꺼져라	-10.1571
▁자식을	-10.1572
000	-10.1574
▁투명하게	-10.158
▁만들었	-10.1581
▁체	-10.1585
▁정부와	-10.1586
▁뻘짓	-10.159
시장	-10.1591
▁참으로	-10.1591
어디	-10.1592
▁숨겨놓은	-10.1594
버려	-10.1595
▁어쩌구	-10.16
▁장악	-10.1601
김정은이	-10.1602
▁뛰어	-10.1611
40	-10.1612
▁속지	-10.1612
▁앞에	-10.1615
친다	-10.1615
자들이	-10.1619
▁바닥	-10.1623
멸	-10.1627
▁뻔한	-10.1627
▁온다	-10.1635
▁걸렸네	-10.1637
▁정신병자	-10.1638
업체	-10.1644
거에요	-10.1646
▁칠	-10.1648
▁정답	-10.1651
▁중에	-10.1652
▁ᄃᄃ	-10.1653
▁회담을	-10.1654
▁안나	-10.1655
▁청년들	-10.1661
▁봉	-10.1663
▁금방	-10.1665
▁믿습니다	-10.1665
든다	-10.1669
▁불쌍하다	-10.1669
▁살았	-10.1672
▁일이다	-10.1672
▁주한미군	-10.1677
인정	-10.1683
▁갑	-10.1683
있을	-10.1684
▁경기	-10.1692
▁알았다면	-10.1697
럴	-10.1701
기위해	-10.1702
닌	-10.1703
▁따까리	-10.1706
럼	-10.1706
▁나서서	-10.1711
▁평화의	-10.1719
▁결론은	-10.1723
▁시대에	-10.1729
▁삶을	-10.1732
▁주둥이	-10.1733
▁그렇고	-10.1734
▁운운	-10.1738
▁쉽지	-10.1738
▁결과는	-10.1739
▁착	-10.1743
▁결혼한	-10.1745
때문	-10.1745
▁생긴	-10.1745
▁듣고	-10.1746
▁맞고	-10.1747
얼	-10.1748
▁기다리	-10.175
돌아	-10.1755
도없고	-10.1756
▁입만	-10.1759
빙	-10.1759
▁합의가	-10.1762
먼저	-10.1762
있었	-10.1762
▁전쟁을	-10.1764
겠는가	-10.1764
▁당시	-10.1767
▁해봐	-10.1769
▁언급	-10.1769
하죠	-10.177
▁자멸	-10.1771
▁역대급	-10.1771
▁다녀	-10.1772
▁내려와라	-10.1777
▁재벌	-10.1777
▁고용	-10.1777
유지	-10.1781
것임	-10.1789
▁스트레스	-10.1793
▁날려	-10.1798
▁도와주	-10.1802
▁망상	-10.1803
▁여론조작	-10.1804
▁자유대한민국	-10.1809
▁자격	-10.181
택시	-10.1811
갖고	-10.1817
▁500	-10.182
내가	-10.1823
▁핵으로	-10.1825
▁떨어졌	-10.1826
▁적어도	-10.1827
▁생겼	-10.1828
▁위에	-10.1829
▁아깝다	-10.1831
▁겁	-10.1834
▁앞잡이	-10.1835
▁그러게	-10.1846
▁알게	-10.1851
▁한달	-10.1859
▁소비자	-10.1859
▁됐네	-10.1861
조선	-10.1862
▁독립	-10.1863
▁끊	-10.1865
▁범죄자	-10.1865
그렇게	-10.1868
·	-10.1874
▁숨겨둔	-10.1875
▁헤	-10.1877
▁상식적으로	-10.1877
▁발견	-10.1878
년을	-10.1884
▁차기	-10.1889
▁문쩝쩝이	-10.1891
뭔	-10.1892
▁밀	-10.1893
▁세무조사	-10.1893
군데	-10.1894
▁한녀	-10.1898
튼	-10.1898
빨리	-10.1905
때가	-10.1907
▁좋았	-10.1914
▁나아	-10.1921
▁여기까지	-10.1927
▁정신좀	-10.1928
▁갈수록	-10.193
엄	-10.1946
해봐야	-10.1948
▁통일을	-10.1948
았는데	-10.1954
짜리	-10.1955
▁김정은이는	-10.1958
▁되는거	-10.1959
▁바꿔	-10.1962
▁경제를	-10.1963
▁읽	-10.1966
▁미국에서	-10.1968
▁인식	-10.197
~^^	-10.1971
▁공범	-10.1973
거니	-10.1974
▁한방에	-10.1976
▁딴	-10.1977
▁능력도	-10.1978
▁탑	-10.1982
▁커녕	-10.1983
▁태양	-10.1984
▁예전에	-10.1988
▁몇번	-10.199
▁포기하지	-10.1998
▁살다	-10.2005
▁중간에서	-10.2009
▁문어벙이	-10.2009
▁나경원	-10.2012
▁안됩니다	-10.2013
고있는	-10.2018
▁김경수	-10.202
▁정은이한테	-10.202
▁높이	-10.2021
인건	-10.2021
▁정책으로	-10.2022
▁방법이	-10.2026
................	-10.2026
주지	-10.2027
▁깡패	-10.2032
▁밥그릇	-10.2037
▁일본은	-10.2038
▁말씀	-10.2038
▁계산	-10.2042
▁수십	-10.2043
▁쏴	-10.205
▁신나	-10.2053
기간	-10.2056
▁조작이라고	-10.2058
▁든다	-10.206
좌빨	-10.2061
▁25	-10.2064
▁사회가	-10.2071
▁대한민국에서	-10.2071
오면	-10.2073
소득	-10.2073
▁갓	-10.2075
쩌	-10.2079
따라	-10.2079
염	-10.2079
▁평	-10.2085
럽	-10.2088
▁국방	-10.2089
100	-10.2091
▁돌보	-10.2091
▁넘들	-10.2094
▁유아	-10.2095
▁중국과	-10.2097
력이	-10.2097
▁길이	-10.2098
▁장려	-10.2103
기술	-10.2104
▁너무나	-10.2104
갱이	-10.2105
▁중소기업	-10.2112
▁답답하다	-10.2113
▁도입	-10.212
앞	-10.2128
▁만드	-10.2134
▁했지	-10.2137
▁이것이	-10.2139
▁묻	-10.214
이들	-10.2141
▁아버지	-10.2142
▁밝히	-10.2143
하도록	-10.2144
숙	-10.2144
▁다르다	-10.2153
▁언	-10.2155
▁진심으로	-10.2158
▁버리고	-10.2159
▁그러면서	-10.2161
▁좋지	-10.2164
▁대깨문들	-10.2164
▁할거	-10.2167
▁빵	-10.2168
가능	-10.2169
▁왔다	-10.217
▁속은	-10.2173
쓰는	-10.2175
▁싫은	-10.2177
검	-10.2177
▁인성	-10.2177
껏	-10.2177
▁현대	-10.218
새기들	-10.218
▁않냐	-10.2186
▁민주화	-10.2197
맨	-10.2199
▁가치	-10.22
▁ᄋᄋ	-10.2202
▁물타기	-10.2204
싸움	-10.2206
로운	-10.2211
야함	-10.2219
곳에	-10.2219
정도로	-10.222
▁뜯어	-10.2222
▁이새끼	-10.2222
▁방법	-10.2227
▁편하게	-10.223
앞으로	-10.2232
▁끝내	-10.2234
▁누군가	-10.2235
▁통일은	-10.2237
데로	-10.2238
▁부모한테	-10.2239
안에	-10.2239
조원	-10.2245
▁전국	-10.2245
▁개학	-10.2247
겠는데	-10.2249
▁66	-10.225
▁굿	-10.2251
▁줄어야	-10.2254
▁경고	-10.2255
▁같음	-10.2257
▁검증	-10.2258
오고	-10.2258
무능	-10.2262
▁다니는	-10.2262
방법	-10.227
▁교활한	-10.2272
협	-10.2276
받은	-10.2276
▁된거	-10.2277
▁집사	-10.2284
▁상황에	-10.2284
효	-10.2287
▁감당	-10.2291
▁만나면	-10.2294
▁있는것	-10.2294
▁크다	-10.2298
▁누나	-10.2298
못하고	-10.2302
▁짓을	-10.2303
▁되어야	-10.2304
것들은	-10.2307
만들어	-10.2308
▁여자도	-10.2309
넹	-10.2317
▁세워	-10.2317
▁할일	-10.2318
▁예측	-10.2318
하는거지	-10.232
쿠	-10.2321
▁강력하게	-10.2322
온다	-10.2328
▁확실하게	-10.233
▁밤	-10.233
공산당	-10.2331
적폐	-10.2334
▁왠	-10.2336
인당	-10.2338
▁영변외	-10.2342
▁뻔	-10.2344
▁없었	-10.2347
▁상태	-10.2348
하는걸	-10.2349
했다면	-10.2352
해줄	-10.2352
▁밑	-10.2368
▁애국	-10.2369
▁한반도에	-10.237
▁거야	-10.2372
할게	-10.2379
▁알려주	-10.2379
▁통화	-10.2382
잘못	-10.2384
내는	-10.2385
▁기가	-10.2386
▁총선에서	-10.2386
▁이정도	-10.2387
혹	-10.2391
이구나	-10.2394
▁모르나	-10.2395
▁집값은	-10.2399
▁뭔데	-10.2406
▁무섭다	-10.2408
▁부모에게	-10.241
▁당신들	-10.2413
▁높아	-10.2415
▁여기에	-10.2415
▁맘에	-10.2417
▁쌀	-10.2419
▁당연한거	-10.2419
▁좋냐	-10.2426
깜	-10.2428
으나	-10.2431
대책	-10.2433
▁회담은	-10.2433
▁기존	-10.2433
G	-10.2433
▁낳아도	-10.2435
▁불쌍	-10.2436
ᄆ	-10.2437
▁분열	-10.2438
▁어쩌고	-10.244
▁주인	-10.2441
복지	-10.2451
▁몰랐냐	-10.2462
▁미치	-10.2464
▁비행기	-10.2465
▁나만	-10.2477
70	-10.2479
▁강한	-10.248
▁몰라도	-10.2484
▁자랑	-10.2489
▁이놈	-10.2497
▁시행	-10.25
하자고	-10.2502
▁사기치다	-10.2503
▁지내	-10.2503
▁머리에	-10.2504
▁알려	-10.2504
▁좀더	-10.2508
▁김정은한테	-10.2508
싫	-10.2515
▁챙겨	-10.2516
디어	-10.2516
될듯	-10.2519
▁상황을	-10.252
내용	-10.2523
▁알아라	-10.2524
혈	-10.253
특	-10.2534
▁공산	-10.2536
궁	-10.2546
▁싸울	-10.2547
▁몰랐으면	-10.2551
페미	-10.2554
예산	-10.2555
영변	-10.2557
▁인간들은	-10.2558
놈의	-10.2561
풀어	-10.2564
▁보험	-10.2566
▁탄핵이	-10.2568
▁신났네	-10.2569
▁종북좌파	-10.2573
▁정치하는	-10.2578
▁이끌어	-10.2578
놈은	-10.2581
▁c	-10.2581
었냐	-10.2583
▁경험	-10.2586
▁다른데	-10.259
▁강남	-10.259
▁저건	-10.259
시는	-10.2592
당하고	-10.2592
겠습니까	-10.2599
▁몰랐다	-10.26
▁망하는	-10.2602
▁자신이	-10.2603
할래	-10.2603
▁자영업자	-10.2603
▁일정	-10.2606
하다니	-10.2609
확	-10.261
일듯	-10.262
국이	-10.2625
▁무뇌	-10.2626
▁북의	-10.2628
▁거냐	-10.2628
▁개혁	-10.263
맘	-10.2637
▁의해	-10.264
▁실제	-10.2643
▁사망	-10.2644
▁문죄인은	-10.2648
▁산업	-10.2649
▁타결	-10.265
라구	-10.2652
위에	-10.2655
꼽	-10.2661
▁ᄇᄃᄇᄃ	-10.2661
▁되나	-10.2661
▁남녀갈등	-10.2662
▁한민족	-10.2662
▁도람프	-10.2662
▁여전히	-10.2663
▁미군철수	-10.2664
라며	-10.2664
▁안좋	-10.2664
▁매번	-10.2666
▁부대	-10.2667
▁영변만	-10.2668
▁죽고	-10.2671
답게	-10.2673
▁뽑았	-10.2674
▁후손	-10.2676
▁죽일	-10.2677
레이	-10.2678
▁나라다	-10.2682
▁야동	-10.2683
▁부분	-10.2684
당은	-10.2685
▁없어지	-10.2689
▁파토	-10.269
▁전당대회	-10.2692
▁했다고	-10.2693
뿐이다	-10.2697
믿	-10.2698
올려	-10.2701
▁내고	-10.2706
북한은	-10.2707
▁사실이	-10.2708
▁잔	-10.271
애들은	-10.2713
▁눈치보	-10.2715
▁공무원들	-10.2719
▁냄새	-10.2719
▁다음에	-10.2719
▁내놓	-10.2721
▁붙어	-10.2731
랴	-10.2732
▁지나가는	-10.2733
▁살면	-10.2738
사람들은	-10.2742
▁의혹	-10.2744
▁마당에	-10.2745
▁할줄	-10.2745
▁지금이라도	-10.2747
치기	-10.2747
▁어떻	-10.2749
돈이	-10.2751
날이	-10.2758
런	-10.2759
▁제정신	-10.276
▁오른	-10.2764
▁퍼주는	-10.2764
▁그지	-10.2765
▁있겠지	-10.2767
▁하야	-10.2767
▁썼	-10.277
▁푸	-10.2778
짱	-10.2779
▁여기저기	-10.2779
▁원칙	-10.278
▁가짜뉴스	-10.2781
▁즉각	-10.2782
▁파업	-10.2784
대상	-10.2789
▁나은	-10.2791
▁또다른	-10.2791
다른	-10.2795
▁사라지	-10.2797
▁김순례	-10.2797
▁속이려	-10.2797
▁장난질	-10.2798
▁확대	-10.2802
한거다	-10.2804
가면서	-10.2807
▁당사자	-10.2808
▁아프	-10.2809
▁도둑	-10.2819
▁용서	-10.282
나와	-10.282
▁당한	-10.2822
▁이것들	-10.2823
▁김정일	-10.2831
▁역활	-10.2832
▁드러나	-10.2833
버렸	-10.2833
▁쫄	-10.2833
▁시대가	-10.2834
▁상상	-10.2836
오늘	-10.2838
안되	-10.2839
살아	-10.284
▁새벽에	-10.2844
▁페	-10.285
▁그러다	-10.2853
▁치는	-10.2854
▁친중	-10.2855
▁머리가	-10.2855
▁난임	-10.2865
▁기자들	-10.2874
▁능력이	-10.2876
▁웃음	-10.2877
▁희	-10.2878
새키	-10.2878
▁결혼할	-10.2879
기관	-10.2882
▁늘어나	-10.2892
▁너희들	-10.2896
▁그렇다	-10.2897
K	-10.2898
쥬	-10.2898
▁gp	-10.2898
습니까	-10.2899
▁해줄	-10.2899
▁삼성이	-10.29
▁하여간	-10.2901
▁하시	-10.2908
일을	-10.2914
▁노래	-10.2915
▁선물	-10.2916
황교안	-10.2916
▁M	-10.2919
잔아	-10.2927
▁잘하는	-10.2929
사가	-10.293
▁삶의	-10.293
▁부자	-10.293
사람들이	-10.293
▁결렬이	-10.2931
▁실제로	-10.2933
▁없는게	-10.2935
▁난민	-10.2941
▁자위	-10.2942
▁요금	-10.2943
▁그네	-10.2946
▁작전	-10.295
▁사장	-10.295
▁추천	-10.2951
▁무엇을	-10.2954
▁저는	-10.2954
▁모두가	-10.2959
저나	-10.2963
▁말라	-10.2965
롱	-10.2969
행위	-10.297
▁문씨는	-10.2971
거네	-10.2972
▁무상	-10.2972
▁으니	-10.2974
▁기자가	-10.2974
▁할듯	-10.2975
뿌	-10.2975
정상	-10.2977
스럽게	-10.2978
▁좋을	-10.2979
▁이성	-10.2981
▁현상	-10.2983
▁죄인	-10.2984
▁터	-10.2984
되냐	-10.2987
▁목적	-10.299
▁맞네	-10.299
▁이번에도	-10.299
들끼리	-10.2991
숨	-10.2993
었어	-10.3
마저	-10.3
▁꺼내	-10.3004
▁남았	-10.3007
▁지위	-10.3009
할것이다	-10.3009
▁정치적	-10.3011
▁하겠다는	-10.3013
▁끌고	-10.3018
▁항복	-10.3019
부대	-10.3023
▁비혼	-10.3025
마라	-10.3025
우면	-10.3025
괴	-10.3027
만해도	-10.3029
년도	-10.3033
▁몇개	-10.3033
▁정확히	-10.3037
정부가	-10.3038
끈	-10.3041
▁달라고	-10.3048
▁세금은	-10.3051
누구	-10.3056
할거다	-10.3058
▁메갈	-10.306
▁해대	-10.3063
▁시민	-10.3063
▁행	-10.3063
▁들었	-10.3065
▁인사	-10.3068
▁꼴통들	-10.3073
▁수령님	-10.3074
▁말한	-10.3074
▁인해	-10.3075
▁떨어	-10.3076
▁쉬운	-10.3079
▁떠들	-10.3081
▁수단	-10.3081
▁자연	-10.3081
▁사이	-10.3086
붙	-10.3089
▁발언	-10.3091
을거다	-10.3093
▁취소	-10.3095
야하는데	-10.3098
하노	-10.31
▁주변에	-10.3106
▁구걸	-10.3115
▁대비	-10.3117
▁끌려	-10.3118
서는	-10.3119
▁지지자들	-10.3121
이었는데	-10.3122
▁안된	-10.3132
▁대안	-10.3132
버려야	-10.3137
▁찌	-10.3139
▁감정	-10.3139
션	-10.3139
j	-10.3141
보세요	-10.3142
▁꼴좋다	-10.3142
라이	-10.3148
▁가슴	-10.3149
▁환장	-10.3149
▁암살	-10.315
▁보수가	-10.315
아이들	-10.3151
▁있겠냐	-10.3153
▁꼴이	-10.3154
▁죄인아	-10.3157
돌리	-10.316
갓	-10.316
▁손잡고	-10.3161
▁손바닥	-10.3162
덩어리	-10.3162
꿈	-10.3163
▁명분	-10.3165
▁해결된다	-10.3169
▁쌍	-10.317
▁뭐든	-10.3179
필요	-10.3183
애들이	-10.3185
▁여유	-10.3187
ᄐ	-10.3188
새기	-10.3191
와라	-10.3196
▁기록	-10.3201
이구만	-10.3204
▁살아가	-10.3206
겟지	-10.321
인게	-10.3212
▁쭉	-10.3212
▁전쟁이	-10.3213
▁어쩔수	-10.3215
사실	-10.3215
▁가능성	-10.3217
▁있어요	-10.3217
일자리	-10.3218
▁감방	-10.3219
육	-10.3221
하려면	-10.3222
났네	-10.3223
▁키우는데	-10.3223
준거	-10.3226
먹은	-10.3229
▁몰려	-10.3232
▁a	-10.3232
▁ᄉᄁ	-10.3232
▁했으니	-10.3232
▁털어	-10.3234
▁멋	-10.3235
처먹	-10.3236
선동	-10.3236
▁삶이	-10.324
거잖아	-10.3242
▁s	-10.325
발전	-10.325
▁끝났	-10.3254
▁이런데도	-10.3257
아들	-10.3259
▁연구	-10.3259
▁믿는다	-10.3262
▁떨어진	-10.3263
▁교활	-10.3264
▁숙청	-10.3265
▁국민혈세	-10.3267
▁이기적인	-10.3269
▁이러다	-10.3271
▁씨부리	-10.3274
성을	-10.3274
페	-10.3274
▁미쳤다고	-10.328
▁배우	-10.3282
▁알아야	-10.3286
▁속으로	-10.3288
▁적화	-10.3288
낮	-10.3288
푸	-10.3289
▁있나요	-10.3289
▁좋아서	-10.3291
하느라	-10.3291
지원금	-10.3299
▁가게	-10.3304
쳐먹	-10.3304
▁너가	-10.3307
▁나가리	-10.3315
돼서	-10.3318
쟁	-10.3323
에게는	-10.3328
▁보니까	-10.3332
▁국민과	-10.3333
▁넣	-10.3335
▁덕분에	-10.3336
▁될까	-10.3337
▁시도	-10.3338
▁ᄁ	-10.3338
▁없구나	-10.3339
해준	-10.3342
▁낫	-10.3343
▁말아야	-10.3348
▁제재풀	-10.3348
▁외에	-10.3349
▁54	-10.335
고있네	-10.3351
으라고	-10.3356
앞에	-10.3356
▁먹고살	-10.3363
▁필요없다	-10.3364
대강	-10.3365
▁해보	-10.3366
▁군대가	-10.3368
▁거래	-10.337
물고	-10.3381
▁모른	-10.3383
범죄	-10.3385
▁평균	-10.3389
있는거	-10.339
▁애초부터	-10.3391
▁항의	-10.3392
▁싶은데	-10.3392
▁향후	-10.3393
▁국가와	-10.3394
순간	-10.3395
▁안가	-10.3403
▁궁금하다	-10.3404
여야	-10.3408
▁현실은	-10.341
▁했냐	-10.3413
▁맡	-10.3414
가리	-10.3414
▁빠지	-10.3415
박근혜	-10.3415
운전	-10.3416
중이	-10.3419
▁2017	-10.342
▁때리	-10.3421
▁혜택을	-10.3422
완전	-10.3424
▁떠나서	-10.3428
▁여적죄로	-10.3431
▁살자	-10.3434
▁정책은	-10.3435
▁북한에게	-10.3436
▁일제	-10.3438
야말로	-10.344
▁찢어	-10.3443
▁카	-10.3443
▁패싱	-10.3443
없는데	-10.3444
▁망하	-10.3446
▁ᄃ	-10.3447
▁S	-10.3451
▁본질	-10.3455
▁만나자	-10.3456
▁똑같	-10.3459
▁같지	-10.3467
제로	-10.3468
▁벗어나	-10.3469
▁승	-10.3471
▁국가를	-10.3471
▁이래	-10.3477
▁한유총이	-10.3478
▁속으면	-10.348
▁물어보	-10.348
▁궁금	-10.3481
▁경제지원	-10.3483
지나	-10.3488
스러운	-10.3489
▁피부	-10.349
▁차이	-10.3491
▁하겠다	-10.3491
▁관심도	-10.3497
인것	-10.3497
▁겪	-10.35
벌어	-10.3506
▁피해자	-10.3506
안된다	-10.3506
▁보면서	-10.3509
▁말아먹	-10.351
▁싶어서	-10.351
▁건데	-10.3512
▁판문점	-10.3516
킹	-10.3516
▁미쿡	-10.3516
▁요새	-10.3518
▁헌법	-10.3518
▁휴전선	-10.352
▁있도록	-10.3521
▁문구라	-10.3521
▁어디다	-10.3523
▁미혼	-10.3527
▁쩝	-10.3529
▁폭정	-10.353
▁불행	-10.3531
만들고	-10.3533
▁어이	-10.3534
▁집이	-10.3537
▁굴리	-10.3538
▁도발	-10.354
▁보이지	-10.3541
▁힘내세요	-10.3542
▁간첩이	-10.3543
이라서	-10.3547
▁정치권	-10.3547
얼굴	-10.3548
깐	-10.3552
▁어디가	-10.3554
▁박근혜가	-10.3556
구조	-10.3557
▁빠는	-10.3562
▁판결	-10.357
▁있었던	-10.3571
▁문재앙아	-10.3572
▁대통령과	-10.3572
▁좋게	-10.3572
▁원전	-10.3578
▁것들은	-10.3579
▁결단	-10.3584
▁올리고	-10.3584
▁보육	-10.3589
▁빨고	-10.359
▁도와	-10.3592
▁문닫	-10.3596
▁교사	-10.3597
▁운전수	-10.3598
지않는	-10.3599
▁기계	-10.3603
겼	-10.3604
▁완성	-10.3605
▁운명	-10.3612
주택	-10.3613
▁정상이	-10.3613
▁끝난	-10.3617
스트	-10.3618
▁살림	-10.3621
▁최저	-10.3622
▁300	-10.3623
▁부리	-10.3623
▁미국에게	-10.3624
▁쌓	-10.3624
▁될것	-10.3627
솔	-10.3631
▁문쩝쩝	-10.3632
▁13	-10.3632
▁성인	-10.3633
ᄉᄏ	-10.3635
▁되야	-10.3637
▁미필	-10.3637
▁인정하고	-10.3642
▁천조국	-10.3644
▁동시에	-10.3645
▁어렵	-10.365
▁결렬되	-10.365
▁성별	-10.3652
▁만들어라	-10.3652
****	-10.3652
▁무식	-10.3652
▁구경	-10.3656
▁문서	-10.3657
▁노동력	-10.3659
▁우리에게	-10.3661
껴	-10.3662
▁관심이	-10.3664
▁억지로	-10.3667
겟	-10.3668
▁놓은	-10.3669
해체	-10.3673
▁잔치	-10.3676
할꺼	-10.3677
▁대화를	-10.3678
국민을	-10.3682
▁터지	-10.3685
지를	-10.3689
▁베트남에서	-10.369
▁왈	-10.369
▁낫지	-10.3692
▁한참	-10.3696
아니고	-10.3699
▁많았	-10.3704
▁무시하고	-10.3705
▁노답	-10.3711
▁현정권	-10.3711
▁강대국	-10.372
▁잘사는	-10.372
▁???	-10.3721
된다고	-10.3726
▁굳	-10.3726
▁세금이	-10.3728
위기	-10.3731
▁경제력	-10.3732
▁입에	-10.3734
하기도	-10.3735
▁제시	-10.3736
▁앙	-10.3737
▁얻	-10.3744
는건가	-10.3744
▁황교안은	-10.3745
것같은데	-10.3748
▁쇼를	-10.3751
▁난다	-10.3752
▁조금만	-10.3754
곳은	-10.3756
▁준다	-10.3756
▁럼프	-10.3756
년만에	-10.3762
▁현실이다	-10.3769
▁진전	-10.3769
힐	-10.3772
▁투명	-10.3774
▁북미정상회담	-10.3774
다시	-10.3774
▁잔머리	-10.3775
▁넣어	-10.3778
▁정부지원금	-10.378
▁페미들	-10.378
봐요	-10.3781
▁만족	-10.3782
하에	-10.3789
되었다	-10.379
안한다	-10.3792
▁해먹	-10.3792
▁하나씩	-10.3795
겟다	-10.3795
▁걸려서	-10.3799
▁밑장빼다	-10.3806
▁이러고	-10.3806
▁준다고	-10.3806
이란게	-10.3808
▁세계를	-10.3808
▁말하고	-10.3809
▁엉망	-10.3813
신분	-10.3813
보험	-10.3813
▁교활이	-10.3814
▁애비	-10.3816
▁대중	-10.3818
시켰	-10.3818
▁정신을	-10.3823
▁김진태가	-10.383
▁법이	-10.3835
▁남았다	-10.3835
▁받아들이	-10.3836
▁숨긴	-10.3838
상태	-10.3841
▁어디까지	-10.3841
▁해외로	-10.3843
▁아내	-10.3844
▁풉	-10.3844
▁안보를	-10.385
▁찌그러져	-10.385
는다고	-10.3853
▁달리	-10.3855
▁느끼	-10.3855
▁동의	-10.3857
▁할때	-10.3861
▁묵	-10.3866
상대로	-10.3872
▁기관	-10.3873
▁갈아	-10.3873
▁폭탄	-10.3876
▁처단	-10.3876
놀이	-10.3878
하더라	-10.388
▁박살	-10.3881
▁정부야	-10.3884
▁탈출	-10.3886
곡	-10.3888
▁유치원이	-10.389
쇄	-10.3893
▁19	-10.3896
▁북한에서	-10.3899
좀해라	-10.39
속에서	-10.3902
낳고	-10.3903
객	-10.3903
시죠	-10.3903
▁심신미약	-10.3905
납니다	-10.3907
▁대규모	-10.3907
든가	-10.3907
▁인한	-10.3915
부러	-10.3916
▁안하는데	-10.3916
▁않습니다	-10.3917
▁퍼줄려고	-10.3919
▁이와중에	-10.3919
▁지들끼리	-10.3919
▁불과	-10.3921
▁구분	-10.3923
▁대통령으로	-10.3924
▁죽이는	-10.3925
▁좌익	-10.3926
▁동물	-10.3928
▁당황	-10.3933
▁쳐먹	-10.3935
▁모르겠	-10.3939
▁숨기	-10.3941
▁방해	-10.3942
▁기업들	-10.3943
▁미세먼지가	-10.3945
▁맞춰	-10.3948
▁민족의	-10.3952
▁댓글에	-10.3954
▁외모	-10.3956
▁만들면	-10.3959
▁보상	-10.396
▁젓	-10.3962
▁책임지고	-10.3963
▁제도	-10.3964
모두	-10.397
▁공유	-10.3971
기들	-10.3972
▁꼬리	-10.3976
▁꺼	-10.398
일은	-10.3981
야합니다	-10.3981
이유	-10.3986
▁증	-10.3995
▁되는게	-10.3995
취급	-10.3997
▁펴	-10.3998
▁다른나라	-10.3999
▁들어갔	-10.4003
▁끝날	-10.4004
▁국민들한테	-10.4006
▁죽어라	-10.4006
▁저돈	-10.4007
▁안간	-10.4011
총리	-10.402
었지	-10.4023
▁꺼져	-10.4024
▁안낳는다	-10.4024
▁버티	-10.4026
▁ᄆ	-10.403
시켜서	-10.4032
다운	-10.4033
▁예고된	-10.4039
▁징역	-10.404
세기	-10.404
▁평화협정	-10.4042
▁하는짓이	-10.4042
▁할것	-10.4044
▁수도권	-10.4045
하시길	-10.4048
▁금지	-10.4048
h	-10.4049
▁걸려	-10.4049
부담	-10.4053
민주	-10.4057
▁업체	-10.4058
▁지원금을	-10.406
▁적은	-10.4061
▁X	-10.4064
▁이전	-10.4066
하겠	-10.4068
한테는	-10.4068
▁저것들	-10.4068
▁.....	-10.4068
▁뭐지	-10.407
▁것임	-10.4071
엉	-10.4074
▁문재인정부	-10.4076
▁뭐고	-10.4076
▁조지	-10.408
▁하는거지	-10.4082
▁새끼들은	-10.4082
옴	-10.4083
▁울나라	-10.4086
▁필요가	-10.4087
나봐	-10.4091
▁불리	-10.4091
▁회계	-10.4092
원이	-10.4094
죄인	-10.4096
집니다	-10.4097
▁정신차리	-10.4101
▁빼먹	-10.4102
는것은	-10.4106
일만	-10.4108
▁멀리	-10.4109
▁말로만	-10.411
▁정세	-10.411
▁얘들	-10.4112
의식	-10.4114
▁생각해보	-10.4114
▁새끼가	-10.4114
동네	-10.4114
명씩	-10.4117
▁ᄅᄋ	-10.412
▁머저리	-10.4126
▁없네요	-10.4127
▁옷	-10.413
질이	-10.4132
▁변호사	-10.4135
봐도	-10.4135
하시는	-10.4142
▁싶으면	-10.4143
살기	-10.4149
▁원인이	-10.4149
▁기사가	-10.415
▁너같은	-10.4157
▁진정성	-10.4157
▁정부도	-10.4159
▁아녀	-10.4161
▁라는	-10.4161
슨	-10.4163
왔는데	-10.4165
▁집도	-10.4167
▁인구수	-10.4168
▁자금	-10.4172
▁마누라	-10.4174
▁문정부는	-10.4174
▁자본주의	-10.4174
▁충격	-10.4175
▁허허	-10.4176
▁김치국	-10.4177
▁왜이리	-10.4177
▁혐오	-10.4177
▁잘되	-10.4179
▁요즘은	-10.418
믿고	-10.418
▁공교육	-10.4181
▁첨부터	-10.4182
▁양반	-10.4184
▁살아남	-10.4185
▁했다면	-10.4185
▁까불	-10.4188
쪽으로	-10.419
▁값	-10.419
▁나라경제	-10.4191
▁근본	-10.4195
▁감히	-10.4197
가정	-10.4199
▁않음	-10.4203
대통령이	-10.4205
▁게다가	-10.4205
▁문프	-10.4205
▁웃어	-10.4206
▁일당	-10.4209
▁시발	-10.4211
▁보유국	-10.4212
저런	-10.4218
▁하여튼	-10.4219
▁중간	-10.4221
▁뒤집어	-10.4222
▁정부에	-10.4222
▁한남들	-10.4222
어떻게	-10.4224
활동	-10.4229
선언	-10.423
▁참수	-10.4236
하는거냐	-10.4241
▁자동차	-10.4252
▁같네	-10.4254
였지	-10.4259
는것을	-10.426
인걸	-10.4267
▁기회를	-10.4268
▁될수	-10.427
낀	-10.4274
센	-10.4277
것네	-10.4281
라는게	-10.4281
60	-10.4283
넘이	-10.4285
▁하는짓	-10.4285
▁각자	-10.4288
▁뭘로	-10.4288
▁도움이	-10.429
킨	-10.4292
▁미세먼지나	-10.4294
중인	-10.4297
▁대표가	-10.4299
▁작업	-10.43
▁바보가	-10.43
▁우리정부	-10.4301
▁채	-10.4303
쓴	-10.4307
쩍	-10.4307
▁매국노들	-10.4307
춘	-10.4308
▁모아	-10.4308
싱	-10.4309
▁제공	-10.431
댔	-10.4311
▁핵동결	-10.4311
▁위대한	-10.4312
▁쏘	-10.4312
▁결코	-10.4313
▁개수작	-10.4314
▁합법	-10.4315
리면	-10.4316
▁말장난	-10.4317
▁아웅	-10.4317
▁출산은	-10.4322
것인가	-10.4324
▁이꼴	-10.4326
▁고집	-10.4327
~~!!	-10.4329
▁애한테	-10.4331
▁봐주	-10.4336
▁집단이	-10.4336
필	-10.4336
▁음주운전	-10.4337
압	-10.4339
▁잘하고	-10.4341
▁이제와서	-10.4342
▁돼지는	-10.4346
▁꿈도	-10.4347
▁거기서	-10.4349
모든	-10.4354
▁입학	-10.4354
▁야이	-10.4357
수를	-10.436
▁낳았	-10.4361
▁쪽팔리	-10.4364
▁어리석은	-10.4366
버릴	-10.437
▁황씨	-10.4371
▁강간	-10.4372
▁업적	-10.4372
▁떨어져	-10.4376
▁안달이	-10.4379
▁테러	-10.4382
▁견제	-10.4387
▁했고	-10.4388
▁젖	-10.4388
▁건물	-10.4394
▁아래	-10.4404
▁북한도	-10.4406
▁살지	-10.4409
▁배가	-10.441
▁보내고	-10.4411
▁상관없	-10.4417
노동	-10.4421
▁악플	-10.4424
▁남아	-10.4426
▁들어오	-10.4428
▁싼	-10.4429
▁잘해	-10.4429
▁현금	-10.4437
▁기사는	-10.4439
▁당할	-10.4442
밝	-10.4446
달창	-10.4447
▁맨	-10.4448
_	-10.445
L	-10.445
▁손모가지	-10.445
▁핵탄두	-10.445
럭	-10.445
▁유아교육	-10.4451
▁저녁	-10.4453
시에	-10.4453
ᄁ	-10.4454
▁지속	-10.4454
▁경제발전	-10.4455
▁싫으면	-10.4456
낳으면	-10.4458
놈아	-10.4461
어린	-10.4463
▁대기	-10.4464
▁많음	-10.4465
▁신났	-10.4469
▁1000	-10.4469
▁적용	-10.447
거여	-10.4471
▁희망을	-10.4475
▁완	-10.4475
▁죽음	-10.4476
▁모르지	-10.4476
▁시나리오	-10.4477
하는것이	-10.4477
위한	-10.4477
▁저걸	-10.4477
▁떨어진다	-10.448
▁강하게	-10.4481
얻	-10.4481
▁뇌사	-10.4482
듬	-10.4483
판에	-10.4488
▁한국당은	-10.4488
▁아닙니까	-10.449
대통	-10.449
▁몰랐나	-10.4491
▁무능력	-10.4492
댓	-10.4503
헌	-10.4504
▁농	-10.4504
▁미래에	-10.4505
낸다	-10.4507
▁말대로	-10.4508
잠	-10.4508
▁망하게	-10.4509
▁수치	-10.4511
사기꾼	-10.4512
▁중재를	-10.4514
▁짜증나	-10.4515
종북	-10.4516
▁만나주	-10.4519
▁잡을	-10.4519
▁아닌듯	-10.4519
했구나	-10.4527
▁질문	-10.4528
▁과정	-10.4529
▁가정에	-10.453
▁블랙리스트	-10.4531
▁죽는다	-10.4533
미래	-10.4536
▁쉽	-10.4539
그러면	-10.4543
역사	-10.4544
일텐데	-10.4545
▁대북지원	-10.4549
▁석탄	-10.4553
▁안좋은	-10.4555
▁협상의	-10.4555
▁날리	-10.4556
레기	-10.4559
▁파탄	-10.456
버리는	-10.4563
▁책	-10.4565
▁작년에	-10.4565
▁청산	-10.4567
자를	-10.4569
▁숙	-10.4579
▁저딴	-10.4579
▁모든것	-10.4583
▁안함	-10.4587
▁수장	-10.4589
하기전에	-10.4589
정부는	-10.459
▁소리하고	-10.4591
▁눈가리고	-10.4591
▁143	-10.4591
▁안낳고	-10.4592
▁황대표님	-10.4594
▁아닌거	-10.4595
▁빠진	-10.4596
▁같습니다	-10.4596
죽여	-10.46
학교	-10.4601
▁개고생	-10.4601
▁출생아	-10.4602
▁503	-10.4605
▁그러냐	-10.4606
,,,,,	-10.4606
▁답없다	-10.4606
▁같네요	-10.4615
▁반복	-10.4618
▁녹	-10.4619
하는것도	-10.4621
▁곳이	-10.4622
▁휘	-10.4623
▁의전	-10.4628
▁해석	-10.4629
▁살리	-10.4633
만원을	-10.4633
▁호락호락	-10.4633
▁외노자	-10.4635
빠진	-10.4636
완	-10.4637
▁다문화	-10.4638
오는	-10.464
▁처먹	-10.4646
헤	-10.4647
▁미개한	-10.4648
▁늦게	-10.4649
▁핵무기를	-10.465
▁강제로	-10.4653
청와대	-10.4653
맡	-10.4653
▁멍	-10.4653
자체를	-10.4655
▁암튼	-10.4658
셔야	-10.4659
▁그림	-10.466
▁없으면서	-10.4668
▁소리가	-10.467
▁소속사	-10.4674
최	-10.4676
남한	-10.4678
▁법을	-10.4678
on	-10.468
▁알았지	-10.4681
▁흔들	-10.4683
▁기르	-10.4694
▁의식	-10.4698
도없는	-10.4698
~~^^	-10.4706
▁받지	-10.4709
▁할꺼	-10.4709
▁사진이	-10.4721
학원	-10.4722
보인다	-10.4722
▁대리	-10.4723
▁인간은	-10.4723
▁멍청하	-10.473
▁하든	-10.473
났는데	-10.4732
▁여야	-10.4733
벅	-10.4733
▁군면제	-10.4733
▁삽질	-10.4733
▁속임수	-10.4734
시나	-10.4734
▁달인	-10.4734
▁빡	-10.4735
▁말이야	-10.4736
▁투입	-10.4736
▁모자라	-10.4737
▁안된다고	-10.4737
▁문치매	-10.4738
▁클	-10.4739
할수있	-10.4739
▁보이는데	-10.4741
▁적이	-10.4744
▁OECD	-10.4745
▁어서	-10.4748
▁의사	-10.4749
▁처형	-10.4752
▁됬	-10.4753
▁충성	-10.4753
▁본인들	-10.4755
▁한국여자	-10.4755
▁문재인대통령님	-10.4757
▁나눠	-10.4758
▁하는구나	-10.4761
▁부탁드립니다	-10.4762
▁좁은	-10.4762
만으로	-10.4763
해야할	-10.4763
▁클라스	-10.4765
▁아기를	-10.4766
▁시키는	-10.4766
아라	-10.4767
▁다같이	-10.4778
▁입장에서	-10.478
가요	-10.478
▁나아가	-10.4787
▁안낳는게	-10.4787
▁앞서	-10.4791
▁내려가	-10.4792
▁줄줄이	-10.4794
▁미세먼지에	-10.4795
▁안한다고	-10.4798
떨어지	-10.48
넌	-10.4801
▁나오지	-10.4801
▁홍보	-10.4802
▁역사를	-10.4803
▁아는게	-10.4805
▁자빠졌	-10.4805
▁출산률이	-10.4806
▁일도	-10.4809
▁무지	-10.4816
해야된다	-10.4819
▁부패	-10.482
아베	-10.4826
▁소비	-10.4827
▁있었을	-10.4828
▁해놓고	-10.4832
그게	-10.4833
▁상식	-10.4837
▁해명	-10.4842
▁옆	-10.4844
▁대통령의	-10.4848
이후	-10.4853
▁새로	-10.4853
▁넘게	-10.4855
▁망해라	-10.4855
됬	-10.4857
알아	-10.4857
▁대통령이냐	-10.4859
▁황교활이	-10.486
▁뿐이	-10.4861
▁쓰면	-10.4862
▁이유를	-10.4867
▁인생이	-10.4868
▁궁금하네	-10.487
▁보낼	-10.487
쳐라	-10.4871
만나서	-10.4875
▁뻔뻔	-10.4875
되길	-10.4877
▁자존심	-10.4878
묘	-10.4878
▁경상도	-10.4878
▁알아봤다	-10.4879
었나	-10.4882
▁인류	-10.4883
▁긴장	-10.4884
▁돈벌이	-10.4887
▁나라망	-10.4888
▁첨	-10.4889
▁음식값	-10.489
▁합의를	-10.489
▁제가	-10.4893
▁무서워서	-10.4894
▁허용	-10.4894
▁좋은데	-10.4897
▁불만	-10.4899
▁싶었	-10.4901
▁환영	-10.4905
하는거야	-10.4908
▁노조	-10.4909
▁매년	-10.4911
▁신경써라	-10.4911
▁아무런	-10.4912
▁생각하지	-10.4918
이니까	-10.4919
▁깨진	-10.492
▁고쳐	-10.4924
▁안해도	-10.4925
▁고사	-10.4925
밑	-10.4925
▁협상은	-10.4926
▁아베가	-10.4927
▁하겠다고	-10.4927
▁안했다	-10.4928
▁되서	-10.4929
▁정치가	-10.493
▁얻을	-10.4931
▁남을	-10.4935
푼	-10.4935
▁잘했다	-10.4937
계속	-10.4937
▁누구나	-10.4946
▁날씨	-10.4947
한반도	-10.4948
아파트	-10.4949
뽑	-10.4952
되나	-10.4952
▁새끼들이	-10.4953
럼프	-10.4954
▁돌봄	-10.4954
▁지금보다	-10.4955
모습	-10.4955
▁사기친	-10.4956
▁낮아	-10.4959
▁세습	-10.4961
▁버리	-10.4963
▁터진	-10.4965
▁신기	-10.4966
▁억	-10.4967
▁속일	-10.4967
수사	-10.4967
하나요	-10.4968
▁깝치	-10.4976
▁살기도	-10.4976
▁돈벌	-10.4978
▁옹호	-10.4979
▁좌파정권	-10.4979
빡	-10.4981
보기	-10.4981
▁김치	-10.4983
▁햇	-10.4983
딩	-10.4984
▁마냥	-10.4987
▁남쪽	-10.4991
▁직원	-10.4991
렀	-10.4992
▁싫어하는	-10.4995
▁보험료	-10.4996
▁뻥	-10.4997
지말자	-10.4997
▁무료	-10.5
버렸네	-10.5001
▁책임지	-10.5002
▁놀아나	-10.5011
했을까	-10.5013
점이	-10.5013
▁검색	-10.5014
▁행위	-10.5018
▁의원	-10.5019
▁위장평화	-10.5021
▁무엇	-10.5023
▁가득	-10.5023
려구	-10.5024
▁받으	-10.5024
핵포기	-10.5024
▁없어도	-10.5025
숭	-10.5025
▁나랏돈	-10.5025
▁웃기	-10.5027
▁이기주의	-10.5027
▁세뇌	-10.5028
▁속셈	-10.5028
▁운동권	-10.5029
▁출동	-10.5031
결렬	-10.5033
▁떨어지고	-10.5034
▁속을	-10.5036
주시길	-10.5038
▁무너지	-10.5038
▁이익을	-10.504
▁것처럼	-10.504
▁경력단절	-10.5041
거리는	-10.5043
▁살인자	-10.5044
▁웃기는	-10.5047
▁시켜라	-10.5049
▁물러나라	-10.505
▁받아서	-10.5051
드리	-10.5051
▁말라고	-10.5052
▁대표님	-10.5053
▁있구나	-10.5054
▁있으	-10.5055
▁틀어	-10.5056
▁망한	-10.506
▁내려놓	-10.5063
▁잔뜩	-10.5068
수준이	-10.5068
수있다	-10.507
▁물건	-10.5073
한듯	-10.5077
▁받으면	-10.5077
▁하더라	-10.5083
자로	-10.5085
▁실수	-10.5089
▁믿냐	-10.509
▁순진한	-10.5092
S	-10.5095
만하면	-10.5096
▁뛰	-10.5098
▁못해서	-10.51
▁세금만	-10.51
하시고	-10.5104
▁영변보다	-10.5104
▁정부를	-10.5105
서야	-10.5108
▁달고	-10.511
▁도둑놈	-10.5111
▁신혼부부	-10.5114
겁니까	-10.5118
노무	-10.5119
//	-10.512
▁많으니	-10.512
될거	-10.5124
관리	-10.5127
▁찐따	-10.5133
▁니네가	-10.5136
ᄀᄀ	-10.5136
500	-10.5139
지옥	-10.514
하지마	-10.5145
안되는	-10.5147
말을	-10.5151
혔	-10.5153
▁얼굴이	-10.5156
벽	-10.5159
▁원하지	-10.5159
▁내려오	-10.5159
던거	-10.5163
난리	-10.5164
▁인력	-10.5167
▁근혜	-10.5168
낭	-10.5168
한국당	-10.5168
했다는	-10.5172
옹	-10.5174
쭈	-10.5174
▁비슷한	-10.5174
▁역겹다	-10.5174
▁흙수저	-10.5174
▁한통속	-10.5175
▁싸그리	-10.5176
▁졸업	-10.5177
▁조선족	-10.5178
▁24	-10.5179
하고있네	-10.5181
▁진태	-10.5181
▁저래	-10.5183
▁애낳을	-10.5187
▁의문	-10.5187
그래도	-10.5188
빨아	-10.5191
지않나	-10.5191
▁소멸	-10.5193
▁해쳐먹	-10.5203
보지	-10.5204
▁이나라가	-10.5204
▁개인의	-10.5205
▁실시	-10.5205
▁해결책	-10.5208
▁맹	-10.521
▁향	-10.5211
보도	-10.5212
▁돌대가리	-10.5213
▁얘는	-10.5213
▁버스	-10.5215
▁없는거	-10.5217
▁쉴드	-10.5219
몰라	-10.5219
야당	-10.5219
▁견	-10.5229
▁이하	-10.5231
▁평화로	-10.5232
공무원	-10.5232
▁중국은	-10.5235
고생	-10.5236
▁안되니	-10.5237
▁국제사회	-10.5241
▁괜찮	-10.5241
앞에서	-10.5242
하더라도	-10.5242
▁흐름	-10.5243
▁살길	-10.5246
▁믿으면	-10.5248
T	-10.525
▁보여주는	-10.5251
삶	-10.5251
▁웃기네	-10.5252
▁신뢰가	-10.5255
▁아동	-10.5258
사이	-10.5262
▁트럼프대통령	-10.5265
▁굶어죽	-10.5265
▁하려는	-10.5267
▁천지	-10.5269
▁냉	-10.5269
▁행정	-10.5272
▁광화문	-10.5274
이에요	-10.5277
뇬	-10.5278
▁무엇이	-10.5279
▁똥돼지	-10.5285
▁줬	-10.5286
▁하던데	-10.5287
▁강력	-10.5288
논리	-10.5289
▁달아	-10.5289
것냐	-10.5289
▁오는	-10.529
살이	-10.5292
었던	-10.5296
웅	-10.5296
▁몰고	-10.5297
놔라	-10.53
인권	-10.5301
▁맞냐	-10.5302
줄알았	-10.5303
▁공립	-10.5303
▁이런걸	-10.5304
이라며	-10.5304
져라	-10.5305
▁택시기사	-10.531
▁가지가지	-10.5311
끼고	-10.5315
▁모양	-10.5316
뻐	-10.5323
▁썩어	-10.5324
빤	-10.5326
릿	-10.5326
팍	-10.5326
쟈	-10.5326
▁조작이라	-10.5326
랍시고	-10.5326
▁조속히	-10.5327
▁간섭	-10.5328
겟냐	-10.5329
미친	-10.5329
▁조롱	-10.5329
▁진실을	-10.533
▁대구	-10.5334
▁흐	-10.5337
▁사라질	-10.5338
▁조율	-10.534
▁기대합니다	-10.5344
거래	-10.5346
아냐	-10.5347
▁그정도	-10.5348
▁윗	-10.5351
▁환	-10.5353
▁조심	-10.5358
▁밝혀라	-10.5359
▁웃긴다	-10.536
내라	-10.5362
▁주도	-10.5362
▁수상	-10.5363
해야함	-10.5366
▁말아라	-10.5367
죄로	-10.5368
시키면	-10.5368
▁아이는	-10.5374
▁최대한	-10.5377
▁생겼다	-10.5379
먹을	-10.538
한거냐	-10.5384
▁쓰지	-10.5384
해주면	-10.5386
▁비핵화할	-10.5391
▁정기적인	-10.5394
▁누리	-10.5396
▁그나	-10.5397
이기	-10.5401
▁공급	-10.5404
O	-10.5405
철수	-10.5406
수는	-10.5407
쏘	-10.5408
뽕	-10.5409
C	-10.541
▁갱	-10.5411
▁사회에서	-10.5415
5%	-10.5419
▁그들이	-10.5422
실패	-10.5424
▁자영업	-10.5428
전술	-10.5428
▁드는	-10.5429
▁수용	-10.5431
▁방식	-10.5435
▁먹은	-10.5435
새끼들이	-10.5436
▁것입니다	-10.5438
려라	-10.5438
념	-10.544
▁이유로	-10.5442
이미	-10.5444
▁남았네	-10.5447
▁생겨	-10.5447
▁남북이	-10.5447
▁보네	-10.5449
▁기사에	-10.5449
▁이나라에서	-10.545
사태	-10.5452
틀딱	-10.5452
▁능	-10.5454
죽이	-10.5456
▁맘충	-10.5456
▁멍청	-10.5457
▁했네	-10.5457
▁집을	-10.5459
▁소통	-10.5464
▁써야	-10.5465
▁주지	-10.547
록	-10.547
▁몬	-10.5471
▁늙은	-10.5474
▁공동	-10.5476
▁전문가	-10.5479
▁위장전입	-10.548
▁아동수당	-10.548
▁며칠	-10.548
▁노벨상	-10.5481
▁나가서	-10.5482
▁소속	-10.5485
▁타격	-10.5486
▁사기를	-10.5487
▁흥	-10.549
▁모르는척	-10.5491
▁레	-10.5492
▁백날	-10.5494
▁공공	-10.5495
▁해주고	-10.5499
▁연관	-10.5504
▁하려면	-10.5504
의원	-10.5505
입장	-10.5506
다음	-10.5507
▁후손들	-10.5509
겄다	-10.551
▁꿀	-10.551
트럼프는	-10.5511
바리	-10.5516
뿐이	-10.5518
모르고	-10.5521
▁성폭행	-10.5521
▁가능성이	-10.5523
▁안하냐	-10.5524
▁일관	-10.5527
거아니냐	-10.5529
력을	-10.5531
겠지요	-10.5531
▁한명당	-10.5532
후에	-10.5532
▁못낳	-10.5532
부족	-10.5535
▁청소	-10.5535
▁무리	-10.5536
▁기여	-10.5537
▁전부다	-10.5537
▁있기	-10.5537
됬네	-10.5544
▁원한다	-10.5545
▁문대통령이	-10.5547
▁생각좀	-10.5548
ᄎ	-10.5549
▁아니지만	-10.5549
▁나머지	-10.5553
에요	-10.5553
▁공정	-10.5554
차이	-10.5555
퍼주고	-10.5559
▁잡는	-10.5559
짖	-10.556
으세요	-10.5562
▁같으면	-10.5565
▁알았으면	-10.5566
한걸	-10.5566
색기	-10.5568
양아치	-10.5568
뭘	-10.5569
▁밀고	-10.5571
썩	-10.5571
▁금액	-10.5573
되게	-10.5576
▁안되는거	-10.5582
▁말든	-10.5584
▁왜구	-10.5585
였던	-10.5588
군대	-10.5592
▁경제적으로	-10.5592
검사	-10.5594
▁행복한	-10.5594
할건데	-10.5596
▁표정이	-10.5596
▁주적	-10.5599
▁안하는게	-10.56
랏	-10.5604
같은데	-10.5607
▁90	-10.5611
챙기	-10.5611
▁일본에	-10.5612
욱	-10.5616
▁이어	-10.5618
▁하늘을	-10.562
▁들어갈	-10.5623
을것이다	-10.5627
▁발광	-10.5627
▁끝이다	-10.563
▁올랐	-10.5635
균	-10.5636
@	-10.5636
▁QLED	-10.5636
▁깊어져	-10.5636
▁유튜브	-10.5636
▁KT	-10.5636
▁분단	-10.5637
▁적폐청산	-10.5637
▁출근	-10.5638
▁물뽕	-10.5638
▁비밀시설	-10.5639
▁거기다	-10.5641
200	-10.5641
▁북핵폐기	-10.5641
▁병역	-10.5643
이라는게	-10.5644
▁기름	-10.5644
가는데	-10.5646
▁마음대로	-10.5646
▁노인들	-10.5648
▁태도	-10.5651
▁전환	-10.5651
▁달래	-10.5651
▁척결	-10.5652
▁이번기회에	-10.5653
▁빼박	-10.5654
답니다	-10.5656
▁총살	-10.5658
▁있었나	-10.566
▁사정	-10.5661
▁모르겠네	-10.5661
▁행복하게	-10.5662
▁위상	-10.5663
▁그것이	-10.5665
인민	-10.5666
▁못함	-10.5669
▁같아요	-10.5669
▁코미디	-10.5671
당대표	-10.5673
??????	-10.5674
▁우리만	-10.5675
▁리	-10.5676
▁진짜로	-10.568
▁자라	-10.5681
▁돌아갈	-10.5681
▁잘살	-10.5681
▁구린	-10.5682
▁친구들	-10.5687
했어요	-10.5688
▁목적이	-10.569
▁보수는	-10.5691
▁못하는데	-10.5691
씨가	-10.5695
여행	-10.5696
▁민심	-10.5697
조치	-10.5698
▁이러면	-10.5698
▁전교조	-10.5703
자들은	-10.5704
▁정신차리고	-10.5708
▁깨지	-10.5708
좋다	-10.5709
하겠습니다	-10.5711
▁우리나라에서	-10.5713
출산율	-10.5717
▁소름	-10.5718
▁전정권	-10.572
하고있	-10.5721
▁방법은	-10.5722
폰	-10.5725
▁싫어서	-10.5726
▁육	-10.5727
▁안중에도	-10.5729
▁망했네	-10.573
▁정은이를	-10.5731
갑니다	-10.5732
▁가능하다	-10.5733
문죄인	-10.5734
▁사찰	-10.5735
▁열차	-10.5735
죽이고	-10.5736
다녀	-10.5741
▁꼰대	-10.5742
11	-10.5744
▁지정	-10.5746
▁빨간	-10.5746
▁낳는게	-10.5748
색히	-10.5749
▁의도	-10.5752
시간에	-10.5756
▁없애야	-10.5757
▁결과다	-10.5761
▁해결해라	-10.5766
룩	-10.5766
▁심각	-10.5768
공장	-10.5775
있게	-10.5777
▁정보를	-10.5778
같음	-10.5778
▁북쪽	-10.5781
▁똥개	-10.5781
▁여성의	-10.5782
▁역할은	-10.5783
▁나라로	-10.5784
▁그들	-10.5784
▁알고있	-10.5792
뚝	-10.5795
▁마녀사냥	-10.5795
▁하루종일	-10.5795
▁찔러	-10.5795
마음	-10.5795
▁정권교체	-10.5796
▁퇴출	-10.5796
▁하루빨리	-10.5796
▁탈탈	-10.5797
▁자칭	-10.5798
▁옳	-10.5798
▁유일하게	-10.5798
▁있었는지	-10.5801
▁50%	-10.5801
▁청와대에서	-10.5802
▁고마해라	-10.5802
▁전방	-10.5804
▁열받	-10.5806
▁양산	-10.5806
가진	-10.5806
▁노예로	-10.5807
구리	-10.5807
▁현명	-10.5808
▁될듯	-10.5809
▁제재해제	-10.581
▁무섭	-10.5811
▁차별	-10.5811
!!!!!!!!!!!!!!!!	-10.5812
라는걸	-10.5815
▁힘내	-10.5823
▁큰소리	-10.5824
▁합의문	-10.583
▁발상	-10.5833
▁다해	-10.5833
▁지금이	-10.5834
▁먹어	-10.5835
▁3.	-10.5836
▁감성	-10.5836
정은	-10.5837
▁문재인도	-10.5838
▁차리고	-10.5844
▁우리나라에	-10.5847
▁공산주의자	-10.5848
치면	-10.585
▁수출	-10.5853
▁조치	-10.5853
▁한국도	-10.5853
▁친박당	-10.5854
▁사회에	-10.5855
▁이럴때	-10.5864
▁혼자살	-10.5869
▁몰아내	-10.587
▁개같은	-10.587
받아서	-10.587
▁조성	-10.5874
▁어렵고	-10.5874
▁뺏	-10.5874
수없는	-10.5876
가짜	-10.5876
▁범	-10.5877
▁나라도	-10.588
▁의사가	-10.5882
▁단속	-10.5887
▁논의	-10.5889
▁주가	-10.5893
f	-10.5894
▁연결	-10.5895
뭉	-10.5896
▁활동	-10.5896
엄마	-10.5897
▁하나님	-10.5898
제대로	-10.5898
▁그돈으로	-10.5899
▁알바들	-10.5904
▁🐕	-10.5905
▁알았나	-10.5906
▁사이트	-10.5907
협정	-10.5908
문제가	-10.591
▁늘리	-10.591
▁존경	-10.591
취업	-10.5914
월에	-10.5915
적극적으로	-10.5917
흔	-10.5918
▁있잖아	-10.5918
사랑	-10.5923
▁한데	-10.5924
간에	-10.5925
▁공조	-10.5926
▁문가놈	-10.5926
▁낳으라	-10.5928
12	-10.5931
▁장기	-10.5932
자마자	-10.5937
아직도	-10.5938
▁이런게	-10.5939
▁망해가는	-10.5943
▁자격이	-10.5944
---	-10.595
▁내돈	-10.5955
▁니는	-10.5955
▁교묘하게	-10.5956
▁실험	-10.5956
▁흡입	-10.5956
▁인구밀도	-10.5956
▁이승만	-10.5957
쩝쩝	-10.5957
▁초미세먼지	-10.5959
▁대북사업	-10.5959
▁길로	-10.5959
▁찍소리	-10.596
▁평등	-10.5963
▁댓글이	-10.5965
시키자	-10.5966
개발	-10.5967
있습니다	-10.5967
금지	-10.5968
▁격랑	-10.5969
▁놈은	-10.597
▁막을	-10.5972
민국	-10.5973
대신	-10.5974
▁낳아야	-10.5976
▁좌우	-10.598
▁못하면서	-10.5982
▁조작이	-10.5985
▁듣는	-10.5985
▁캐	-10.5986
바보	-10.5991
찾	-10.5992
▁어려워	-10.5992
했을텐데	-10.5993
이젠	-10.5994
▁B	-10.5998
▁애를낳	-10.5998
천만원씩	-10.5999
▁환경을	-10.6003
▁실력	-10.6003
었을	-10.6005
▁나갈	-10.6006
야할	-10.6007
▁있었다면	-10.6008
문제는	-10.6009
돈을	-10.6011
▁동일	-10.6012
있어야	-10.6012
빠는	-10.6013
▁우기	-10.6014
▁짤	-10.6015
하셨	-10.6018
▁우리국민	-10.6018
▁님	-10.6018
▁이럴줄	-10.6027
▁꼬시다	-10.6028
테고	-10.6031
다니는	-10.6031
듣고	-10.6033
물어	-10.6033
▁북을	-10.6038
싫다	-10.6042
새끼가	-10.6044
▁사기치려다	-10.6044
왈	-10.6047
는거임	-10.6047
마리	-10.6048
▁따위	-10.6049
됐으면	-10.6049
정권은	-10.6049
한건데	-10.6051
▁금수저	-10.6055
▁400	-10.6055
▁했겠지	-10.6055
했습니다	-10.6056
하라는	-10.6057
스럽	-10.6057
부부	-10.6058
▁전문	-10.6058
올리	-10.6059
▁빽	-10.6059
▁수작	-10.606
핵폐기	-10.6062
못한다	-10.6062
▁밑에서	-10.6062
▁헤어	-10.6065
▁끌어내	-10.6066
장난	-10.6071
▁말려	-10.6072
봤다	-10.6072
지않고	-10.6074
▁시설이	-10.608
배달	-10.6081
▁좋아지	-10.6086
롭	-10.6089
▁광고	-10.609
▁손에	-10.609
해준다	-10.6091
▁반미	-10.6092
▁일베충	-10.6093
▁전국민	-10.6094
나라에서	-10.6096
하고있다	-10.6098
을거	-10.61
운전자	-10.6101
▁것만	-10.6102
▁올라갈	-10.6104
▁그러지	-10.6106
▁자한당과	-10.6111
▁G	-10.6114
N	-10.6117
▁갑시다	-10.612
뉘	-10.612
H	-10.612
▁파이팅	-10.612
▁신생아	-10.612
들여	-10.612
▁죄가	-10.612
▁숫자	-10.6121
다는데	-10.6121
▁무상교육	-10.6122
▁설립	-10.6122
▁없어져야	-10.6124
▁보세요	-10.6124
▁좋아할	-10.6124
▁전쟁나	-10.6124
없어서	-10.6125
▁될거	-10.6125
▁감싸	-10.6126
▁죄앙이	-10.6128
▁역사에	-10.6129
re	-10.613
▁은행	-10.6131
▁앉아서	-10.6134
▁다시한번	-10.6135
▁길을	-10.6137
▁초등	-10.6138
▁온통	-10.6139
▁수많은	-10.6139
에대한	-10.6139
▁살기좋은	-10.614
▁김정은도	-10.6141
▁대폭	-10.6142
들면	-10.6142
▁현실적으로	-10.6142
▁고려	-10.6143
▁훨	-10.6145
▁부인	-10.6147
▁실업률	-10.615
▁//	-10.6153
버림	-10.6155
▁이쯤	-10.6156
▁여론조사	-10.616
▁품	-10.616
▁권력을	-10.6168
▁오또케	-10.6168
▁아이돌	-10.6169
명을	-10.6169
▁지지자	-10.6176
▁명단공개	-10.6176
▁바쁘	-10.6179
▁흠	-10.6183
▁똑똑한	-10.6184
하던데	-10.6186
▁뽕	-10.6188
점을	-10.6188
▁한번에	-10.6193
요금	-10.6195
▁문재인이가	-10.6196
▁새끼는	-10.6198
▁이민가	-10.6199
▁침해	-10.6201
받아야	-10.6202
▁강요	-10.6203
많다	-10.6205
▁웃겨	-10.6207
▁각하	-10.6208
몸	-10.6217
▁사는데	-10.6222
▁출산율을	-10.6224
낙	-10.6225
호구	-10.6226
▁끌	-10.6228
살려	-10.6228
봅니다	-10.6231
시스템	-10.6231
분위기	-10.6232
▁외치는	-10.6238
▁참나	-10.6239
▁젊	-10.624
▁워	-10.6241
키들	-10.6243
는구만	-10.6243
이건	-10.6244
▁짓이	-10.6244
말로	-10.6245
얼마나	-10.6246
잔치	-10.6246
▁하나는	-10.6248
보장	-10.6249
▁쳐먹고	-10.6251
▁이를	-10.6251
▁판을	-10.6252
▁위원장	-10.6254
경쟁	-10.6257
▁덮	-10.6257
▁빨갱	-10.6258
룰	-10.6258
효과	-10.6259
▁기도	-10.626
렸네	-10.6268
▁양쪽	-10.6269
▁맡길	-10.6269
안함	-10.6269
▁말아먹고	-10.627
▁뻘	-10.6271
으로서	-10.6274
▁생존	-10.6281
수당	-10.6283
▁짐	-10.6286
상에	-10.6286
멘	-10.6287
#	-10.6287
▁쿠데타	-10.6287
▁맙시다	-10.6287
▁손가락	-10.6287
▁올바른	-10.6287
▁해외여행	-10.6287
▁어딜	-10.6289
▁빠른	-10.629
▁얼른	-10.629
▁한다면	-10.6292
으러	-10.6292
▁꽤	-10.6293
▁나라꼴이	-10.6295
▁엄중	-10.6297
▁모를까	-10.6297
▁조선시대	-10.6297
▁좋겠	-10.63
▁대책을	-10.63
▁있다가	-10.6301
▁평화쑈	-10.6302
▁모가지	-10.6302
▁정신차려	-10.6306
▁속았	-10.6307
▁뭐하고	-10.631
▁입으로	-10.6315
▁공산국가	-10.6316
주니	-10.6319
버리면	-10.6321
!!!!!!!	-10.6326
▁문재인정권	-10.6328
▁바치	-10.6328
▁개돼지로	-10.6329
▁축하한다	-10.633
▁채널	-10.6335
▁않게	-10.6336
▁조져	-10.6337
▁경찰들	-10.6337
▁죽어도	-10.6342
▁탄핵감	-10.6345
▁댓글부대	-10.6346
▁못하네	-10.6346
▁되었네	-10.6347
기준	-10.635
니들	-10.6351
▁조장	-10.6355
▁제한	-10.6357
▁고만	-10.6357
▁무장	-10.6359
▁저능아	-10.636
▁해당	-10.6362
▁몫	-10.6362
▁차지	-10.6364
까진	-10.6365
같으면	-10.6365
▁홀	-10.6365
▁잠시	-10.6366
▁제대로된	-10.6366
▁더한	-10.6366
▁기레기야	-10.6366
퀴	-10.6367
▁세상을	-10.6369
▁수익	-10.6372
▁이루어지	-10.6374
▁하수인	-10.6374
▁소리를	-10.6378
챙	-10.6381
▁테	-10.6385
친일	-10.6388
▁지금처럼	-10.6389
줬는데	-10.6392
멍	-10.6397
▁차이가	-10.6399
엿	-10.64
베트남	-10.64
▁맞을	-10.6401
인거지	-10.6401
ᄌᄅ	-10.6405
워서	-10.6408
보여	-10.6409
▁차려	-10.6411
파악	-10.6411
▁지켜보	-10.6413
▁저출산이	-10.6416
하는건지	-10.642
거는	-10.6421
▁끌려다니	-10.6426
▁문재앙을	-10.6428
하던지	-10.643
꼴통	-10.6432
킬	-10.6437
갈등	-10.6442
그래서	-10.6443
▁모습을	-10.6445
▁와중에	-10.6446
자기	-10.6447
렬	-10.6448
번째	-10.6448
▁뭉	-10.6449
나와서	-10.6449
P	-10.6455
▁개판이	-10.6455
컨	-10.6456
▁통째로	-10.6456
▁바꿀	-10.6458
껀데	-10.6458
▁x	-10.6459
▁국립	-10.646
▁하필	-10.6461
▁더욱더	-10.6464
▁비핵화에	-10.6464
▁포기하겠냐	-10.6465
▁웬	-10.6465
국민이	-10.6465
▁징	-10.6466
폭망	-10.6468
▁알고있다	-10.6468
▁수고	-10.6472
▁해결되	-10.6473
▁무능하고	-10.6473
▁들어간	-10.6474
▁닥치고	-10.6477
친거	-10.6477
넼ᄏᄏ	-10.648
▁제로	-10.6482
▁에이	-10.6483
▁일자리가	-10.6484
▁한강	-10.6486
▁프랑스	-10.6486
▁하나같이	-10.6486
▁들이	-10.6486
세우	-10.6492
▁당연하지	-10.6493
▁두명	-10.6496
▁맡기	-10.6498
덕에	-10.65
▁그런데도	-10.65
▁허경영이	-10.65
▁풀어달라고	-10.65
미국은	-10.6501
▁빈부격차	-10.6502
▁특징	-10.6503
▁떠들어	-10.6504
▁좋은거	-10.6508
▁나면	-10.6509
나가는	-10.6509
▁같고	-10.651
머니	-10.6514
▁이따위	-10.6515
지않은	-10.6516
쳐도	-10.6524
돈은	-10.6524
히고	-10.6526
보내고	-10.6526
▁막고	-10.6529
▁2000	-10.6532
▁C	-10.6534
▁들어주	-10.6536
▁떠드는	-10.6537
기회에	-10.6537
▁가만있	-10.6538
택	-10.6539
▁했는지	-10.6543
▁고대	-10.6544
중인데	-10.6547
▁서울에	-10.6549
▁캬	-10.6549
▁닫	-10.6551
구멍	-10.6552
투자	-10.6558
▁못된	-10.6558
▁합리적	-10.6564
▁살면서	-10.6564
▁부자들	-10.6564
▁잣	-10.6564
로써	-10.6565
▁잡아야	-10.6567
▁아저씨	-10.6567
▁여기가	-10.6568
하는거다	-10.6577
작전	-10.6578
▁나오네	-10.658
바닥	-10.658
▁원인은	-10.6583
▁맞는거	-10.6583
자체	-10.6585
끔	-10.6586
는데도	-10.6586
지마세요	-10.6586
▁다른곳에	-10.6589
▁전세계를	-10.659
집에	-10.6593
▁운	-10.6594
았으면	-10.6596
▁사라져야	-10.6599
은거	-10.6599
살인	-10.6599
픈	-10.6601
행동	-10.6603
▁방향	-10.6604
안하면	-10.6614
▁했다는	-10.6615
▁출산하면	-10.6616
시면	-10.6617
▁부족한	-10.6617
▁잘난	-10.6618
▁재제	-10.6621
어진	-10.6622
▁쇼는	-10.6624
▁정신이	-10.6624
▁건지	-10.6625
▁지랄을	-10.6625
▁이완용	-10.6629
깃	-10.6629
E	-10.6629
▁유전자	-10.6629
............	-10.663
▁에효	-10.6631
▁중국몽	-10.6635
▁어디갔냐	-10.6639
▁소설	-10.664
▁잘생긴	-10.664
▁안할	-10.6641
▁자폭	-10.6641
▁멍청이	-10.6641
▁모름	-10.6642
▁생활비	-10.6645
▁불법이	-10.665
▁넘쳐나	-10.6651
▁각오	-10.6653
▁몇명	-10.6655
▁븅	-10.6655
▁그러고	-10.6655
▁껴	-10.6656
▁확신	-10.6657
▁안봐도	-10.6657
▁부디	-10.666
▁옳았다	-10.666
▁싶어도	-10.666
핵을	-10.6661
▁양육비	-10.6662
▁아마추어	-10.6663
▁누구를	-10.6663
▁너거	-10.6664
▁천국	-10.6664
▁생각해봐라	-10.6666
라는거	-10.6666
▁돈많은	-10.6669
▁시급	-10.667
▁쳐다보	-10.6673
됬다	-10.6675
야된다	-10.6677
▁여자를	-10.6682
▁사라졌	-10.6682
▁세계가	-10.6683
일세	-10.669
▁중간에	-10.6691
▁할말	-10.6692
▁해방	-10.6692
▁뭐하게	-10.6696
▁하네요	-10.6701
▁전술	-10.6707
대기	-10.671
▁지하	-10.6712
▁핵돼지	-10.6713
▁ᅮ	-10.6716
테니까	-10.6716
▁엄마들	-10.672
▁할텐데	-10.672
▁놀아	-10.6727
▁안간다	-10.6729
▁위로	-10.673
▁썩	-10.6731
여자들	-10.6734
▁욕하고	-10.6735
▁낳아라	-10.6737
▁임대	-10.674
새끼야	-10.6741
비싸	-10.6741
▁필수	-10.6742
▁통역	-10.6742
하니깐	-10.6743
▁나오고	-10.6744
▁바른	-10.6746
었다고	-10.6746
▁맞추	-10.6748
들이다	-10.6756
▁있긴	-10.676
▁문제인이	-10.676
가즈아	-10.6761
▁오만	-10.6762
▁백수	-10.6766
▁괴	-10.6766
▁언론은	-10.6766
▁넘어갈	-10.6767
물론	-10.6772
▁하겠네	-10.6775
▁배려	-10.6775
겠음	-10.6775
전투	-10.6776
▁후보	-10.6777
▁악질	-10.6778
▁얻는	-10.6781
▁못낳는	-10.6782
옥	-10.6782
▁믿을수	-10.6783
마약	-10.6783
▁그들의	-10.6784
로부터	-10.6785
▁기다려	-10.6786
주기	-10.6787
▁안낳아	-10.6796
▁지능	-10.6798
해줘라	-10.6798
▁회담장	-10.6801
스런	-10.6802
둑	-10.6802
▁시험	-10.6802
뱅	-10.6803
촉	-10.6804
눌	-10.6804
꽁	-10.6804
▁하루아침에	-10.6804
▁더더욱	-10.6804
▁부추기	-10.6804
▁더럽게	-10.6805
키워	-10.6806
▁최근	-10.6806
▁비웃	-10.6806
죽어	-10.6807
▁여러가지	-10.6807
▁연합	-10.6808
▁추락	-10.6808
▁그딴	-10.6809
▁있어야지	-10.6812
▁조금이라도	-10.6814
▁올린	-10.6816
▁상대방	-10.6818
하지도	-10.682
▁여긴	-10.6822
▁국방력	-10.6823
▁월세	-10.6825
▁냉면	-10.6828
주길	-10.683
▁남한이	-10.6832
▁중요하다	-10.6835
가격	-10.6838
▁하늘이	-10.6839
▁대형	-10.6843
▁이해찬	-10.6846
나올	-10.6848
▁시켜야	-10.6858
▁된다는	-10.6858
▁먹여	-10.6858
▁고맙다	-10.6859
대에	-10.6862
▁않지만	-10.6864
▁답은	-10.6868
▁대책이	-10.687
▁퇴근	-10.6872
답다	-10.6873
▁덕	-10.6875
▁북한하고	-10.6876
같지	-10.688
▁법으로	-10.688
▁페미정책	-10.6881
시키들	-10.6882
딴	-10.6882
▁오후	-10.6885
▁여성이	-10.6886
▁웃는	-10.6886
▁채우	-10.6887
▁받아라	-10.6888
▁정치적으로	-10.6888
▁극치	-10.6895
▁이라고	-10.6897
오르	-10.6899
▁몇일	-10.69
함이	-10.6903
활	-10.6904
▁전투는	-10.6904
▁들어서	-10.6905
요구	-10.6905
▁한달에	-10.6908
▁만들어야	-10.691
▁살다가	-10.691
▁모습이	-10.6913
휘	-10.6914
▁이놈의	-10.6916
▁몇십년	-10.6917
친구	-10.692
▁새벽	-10.6921
▁기능	-10.6923
▁빛	-10.6924
▁만났	-10.6926
겁	-10.6927
▁돈주고	-10.6931
딜	-10.6932
▁지는	-10.6933
꺼야	-10.6935
▁모여	-10.6936
묻	-10.6938
▁소식	-10.6938
벼	-10.6938
▁상대가	-10.694
▁대가리가	-10.6942
▁정상인	-10.6945
▁되길	-10.6947
▁들통나	-10.6949
▁송	-10.695
역활	-10.695
다는게	-10.6951
무기	-10.6952
▁거짓말을	-10.6953
월급	-10.6954
연금	-10.6955
▁될것이다	-10.6955
▁지구상에	-10.6957
고요	-10.6957
▁드러	-10.6959
▁망언이	-10.6961
빠지게	-10.6962
경우	-10.6963
없애	-10.6965
▁여태	-10.6969
▁걱정되	-10.6969
▁같으니	-10.697
▁낳으	-10.6973
겟네	-10.6976
낄	-10.6977
목숨	-10.698
▁미세먼지는	-10.698
없으니	-10.6982
뻑	-10.6983
]	-10.6983
▁빅딜	-10.6983
▁문정인	-10.6983
▁검열	-10.6984
할라고	-10.6985
▁냉전	-10.6986
▁고향	-10.6986
▁비정상	-10.6986
▁만나고	-10.6987
받으면	-10.6988
▁등골	-10.6991
모르는	-10.6991
▁빙신	-10.6991
▁못살	-10.6992
▁중국의	-10.6992
▁튀	-10.6994
▁양파	-10.6995
므로	-10.6996
감이	-10.6997
▁배운	-10.6998
▁한녀들	-10.6999
▁수십년	-10.6999
▁대답	-10.7
▁될지	-10.7003
▁저희	-10.7004
▁부양	-10.7006
▁안받	-10.7009
▁내는	-10.7011
▁자유를	-10.7012
▁도망	-10.7014
▁줄어드는	-10.7014
▁직전	-10.7014
▁챙겨라	-10.7014
나온다	-10.7014
▁늘려	-10.7015
▁땡	-10.7016
잖어	-10.7019
해지고	-10.7019
시점	-10.7021
▁이러는	-10.7023
▁나발이고	-10.7025
▁없어질	-10.7025
▁저출산은	-10.7026
▁뒷돈	-10.7026
▁장사치	-10.703
▁대가	-10.703
하잖아	-10.7033
대중	-10.7035
▁구멍	-10.7037
왔던	-10.7046
▁청와대에	-10.7052
▁옳은	-10.7054
▁사업가	-10.7055
▁아닌것	-10.7062
▁속는	-10.7063
▁조용	-10.7063
▁따지	-10.7064
신이	-10.7068
따위	-10.7069
▁생각하니	-10.7072
▁문신	-10.7073
▁하나로	-10.7073
▁가야지	-10.7073
▁한국당이	-10.7075
되네	-10.7075
▁국민들도	-10.7077
▁적어	-10.7077
▁만나자고	-10.7078
▁살만	-10.7078
▁것이지	-10.7078
▁당선되	-10.708
▁돌아가면	-10.7086
▁선생	-10.7087
▁조상	-10.7088
▁애국자	-10.7091
▁마구	-10.7092
조장	-10.7094
당으로	-10.7094
만든	-10.7095
▁평가	-10.7097
▁찬	-10.7099
▁잊	-10.71
팔아	-10.71
기다	-10.7103
▁너의	-10.7103
▁해야할	-10.7107
▁일반인	-10.7108
▁자식이	-10.7113
할수있는	-10.7115
롭게	-10.7116
▁저도	-10.7117
좃	-10.7123
▁후에	-10.7125
언제	-10.7127
▁건가	-10.7129
오지	-10.7129
졌네	-10.713
▁해결이	-10.7132
▁문제야	-10.7136
▁속도	-10.7145
▁탄핵당	-10.7146
▁실검	-10.7148
턴	-10.7152
▁손님	-10.7153
▁프로	-10.7155
▁찍은	-10.716
닦	-10.7162
▁핵보유국으로	-10.7163
도대체	-10.7163
▁사냐	-10.7164
삽	-10.7164
▁마이너스	-10.7164
▁몇십	-10.7166
▁무덤	-10.7166
80	-10.7166
▁행태	-10.7167
▁공감순	-10.7168
▁바래	-10.7168
▁코언	-10.7168
라니까	-10.7173
▁지원해	-10.7174
▁핵대중	-10.7174
▁미친듯이	-10.7174
▁종교	-10.7174
▁태국	-10.7175
▁폐미	-10.7175
▁정기적으로	-10.7176
▁세계에서	-10.7179
▁할배	-10.7181
▁학부모에게	-10.7185
물이	-10.7185
▁일본의	-10.7187
▁메인	-10.7188
▁오해	-10.7191
되야	-10.7192
새끼들아	-10.7197
▁독재정권	-10.7198
▁노동자	-10.7198
▁치더니	-10.7198
▁맞음	-10.7198
같네	-10.7199
년후	-10.7203
시대에	-10.7203
으로써	-10.7205
▁타이밍	-10.7205
녀석	-10.7207
▁자식은	-10.7208
▁남한을	-10.7209
▁경쟁력	-10.7212
▁꼬붕	-10.7214
▁땅에	-10.7215
할줄	-10.7216
있는지	-10.7216
▁언론에서	-10.7218
▁맞았	-10.7219
▁멀쩡한	-10.7219
▁어벙이	-10.7221
려다가	-10.7223
▁안되나	-10.7227
최고	-10.7227
▁있다는걸	-10.7229
▁나라꼴	-10.7232
▁아니니	-10.7232
▁때가	-10.7234
▁목소리	-10.7236
▁예정	-10.7236
▁미국대통령	-10.7238
▁내보내	-10.7239
리라	-10.724
▁떨어져야	-10.7242
▁근거	-10.7244
▁전쟁하자	-10.7246
▁감옥에	-10.7253
었습니다	-10.7256
▁궁	-10.7258
▁놔	-10.7258
들어서	-10.726
▁그만좀	-10.7261
탱이	-10.7261
▁우롱	-10.7262
▁둘이서	-10.7264
▁살해	-10.727
▁염	-10.727
▁폐기하고	-10.7271
수로	-10.7273
▁택	-10.728
▁양아치들	-10.728
하던가	-10.7281
다간	-10.7282
▁망치고	-10.7286
쉐	-10.7287
▁느낌이	-10.7288
▁거임	-10.7294
▁역사의	-10.7295
▁오르고	-10.7295
셋	-10.7296
꿀	-10.7298
▁싶냐	-10.7299
▁물가는	-10.73
둬	-10.7302
▁북괴가	-10.7308
▁주제	-10.7309
이트	-10.7309
D	-10.7309
띠	-10.731
주사파	-10.7312
널	-10.7312
대학	-10.7313
▁문재앙이는	-10.7314
하는척	-10.7315
장을	-10.7318
▁퍼주지	-10.732
▁안하지	-10.7323
▁집회	-10.7323
▁아이낳	-10.7326
▁회담에	-10.7327
합니까	-10.7328
▁심보	-10.7328
쓰레기들	-10.7331
▁단순	-10.7333
▁일본인	-10.7334
계획	-10.7336
▁역사가	-10.7337
▁했지만	-10.7338
렷	-10.7338
▁엉뚱한	-10.7338
▁엎	-10.7345
콘	-10.7346
▁휘둘	-10.7349
▁성매매	-10.735
▁우라늄	-10.735
▁페미니스트	-10.735
▁도저히	-10.735
▁배워라	-10.735
▁핵포기할	-10.735
외에	-10.7351
▁황교	-10.7351
▁요청	-10.7351
▁서서히	-10.7352
▁더불당	-10.7353
▁물려주	-10.7353
▁끄	-10.7356
▁들통난	-10.7356
▁줘봐라	-10.7357
▁해결할	-10.7358
▁앉아있	-10.7359
▁실행	-10.7359
▁눈깔	-10.736
▁절라도	-10.736
▁미국내	-10.7363
▁빈손으로	-10.7363
▁고마	-10.7364
▁개입	-10.7365
▁체감	-10.7365
시켜주	-10.7366
▁뜯	-10.7367
▁군사력	-10.7369
▁일찍	-10.737
▁박살내	-10.737
▁오지네	-10.7372
을수	-10.7374
▁대북정책	-10.7374
▁접근	-10.7374
▁되니	-10.7375
기지	-10.7375
▁징징대	-10.7377
▁즉시	-10.738
▁미세먼지로	-10.7382
권력	-10.7383
▁쌩	-10.7385
선거	-10.7385
▁가리	-10.7386
▁오를	-10.7386
▁줄여	-10.7387
내서	-10.7388
▁시집	-10.739
▁지어	-10.7392
▁웃는게	-10.7393
▁중요하지	-10.7394
▁뻔하다	-10.7399
▁미국으로	-10.74
▁할아버지	-10.7406
▁살려라	-10.7408
일에	-10.7409
고싶은	-10.741
▁그놈의	-10.7413
▁알겠다	-10.7414
▁빨아대	-10.7414
차리	-10.7415
▁파키스탄	-10.7421
▁억지	-10.7425
▁잘먹고	-10.7428
▁몰라서	-10.7428
▁비해	-10.7429
뒤에	-10.7431
▁포기하는	-10.7436
▁높다	-10.7437
입장에선	-10.7438
▁없지만	-10.744
▁지껄이	-10.7442
▁아오	-10.7445
넘어	-10.7446
▁따라가	-10.7452
▁줄이고	-10.7452
정책이	-10.746
▁스모그	-10.746
▁대우	-10.7462
▁정도면	-10.7462
▁등신들	-10.7464
라인	-10.7467
▁죽어나	-10.7467
▁되겠냐	-10.7468
▁달창들아	-10.7468
▁책임져야	-10.7472
▁구리	-10.7477
▁동맹	-10.7479
▁당대표가	-10.748
놈들아	-10.748
하하하	-10.7484
▁사안	-10.7485
▁물건너	-10.7485
돌아가	-10.7485
▁미안	-10.7486
준다는	-10.7487
이렇게	-10.7488
▁새키	-10.7492
빌	-10.7493
▁시계	-10.7495
▁생각한	-10.7498
세력들	-10.7498
▁퍼준	-10.7498
캐	-10.75
▁놀랐	-10.7501
쇠	-10.7502
땡	-10.7502
팬	-10.7502
쪼	-10.7503
▁결렬됐	-10.7504
M	-10.7504
차라리	-10.7505
직전	-10.7507
▁영업	-10.7508
되기	-10.7509
▁못하니	-10.7509
형이	-10.751
▁종자들	-10.751
▁환경부	-10.7511
▁공짜	-10.7511
해달라고	-10.7516
▁애낳아	-10.7519
▁한대	-10.752
갖	-10.752
나쁜	-10.752
기레기	-10.752
▁서민들은	-10.7522
▁마이	-10.7525
알바	-10.7527
▁ᅡ	-10.7528
▁키울수	-10.7528
▁마음에	-10.7532
▁낳는거	-10.7532
▁할지	-10.7534
▁날라	-10.7537
눔	-10.7538
▁유관순	-10.7538
껍	-10.7538
▁대물림	-10.7538
▁고스톱	-10.7538
▁솔까	-10.7538
▁최신순	-10.7539
▁ᄃᄉ	-10.754
▁셋째	-10.7541
한심	-10.7541
▁b	-10.7542
▁최종	-10.7542
▁근본적인	-10.7542
▁따져	-10.7543
▁세상에서	-10.7545
▁순공감순	-10.7545
▁엄정	-10.7548
▁죄를	-10.7548
나온	-10.755
▁담판	-10.7551
▁도망가	-10.7552
▁젊은이들이	-10.7559
▁놀아난	-10.7559
▁이런식으로	-10.7559
충이	-10.756
▁만들어놓고	-10.7561
▁되는것	-10.7562
▁올라간다	-10.7565
▁머가리	-10.7567
되겠네	-10.7567
▁총선때	-10.757
▁똘마니	-10.7571
넣	-10.7572
▁평화와	-10.7573
▁편히	-10.7576
▁말해	-10.7577
▁대북주	-10.7584
▁21	-10.7587
▁선전	-10.7588
▁몰랐던	-10.7589
▁가동	-10.759
란걸	-10.759
부터가	-10.7594
하듯	-10.7597
▁tv	-10.7598
▁언제부터	-10.7599
▁누구한테	-10.76
▁시다바리	-10.7602
▁내리고	-10.7602
▁온다고	-10.7602
▁골로	-10.7607
▁하나라도	-10.7609
국민들은	-10.7609
▁방향으로	-10.761
▁좋고	-10.7611
▁압	-10.7612
▁원비	-10.7613
▁헬조선에서	-10.7617
▁한숨	-10.7619
▁든	-10.762
한것도	-10.7621
▁매장	-10.7621
▁유리	-10.7623
대선	-10.7625
▁답답한	-10.7627
▁사기치	-10.7628
▁문가야	-10.7629
▁전세계가	-10.763
v	-10.763
▁적국	-10.7631
▁소원	-10.7634
명은	-10.7635
90	-10.7636
▁잘생겼	-10.7638
▁있었네	-10.7638
▁망하고	-10.7639
👍	-10.7642
▁관심없다	-10.7643
공기	-10.7644
▁한가지	-10.7645
또한	-10.7645
▁외국으로	-10.7647
이익	-10.7648
▁많으면	-10.7653
▁기준	-10.7658
▁지나면	-10.766
▁새키들	-10.7661
▁못하겠다	-10.7661
▁남북한	-10.7662
▁쳐맞	-10.7664
▁못받	-10.7664
시민	-10.7666
▁개털	-10.7666
▁나갔	-10.7667
애낳	-10.7668
교사	-10.7668
▁아직까지	-10.767
전까지	-10.767
촌	-10.767
▁까고	-10.7676
▁북한놈들	-10.7677
드니	-10.7678
▁방문	-10.7679
들이랑	-10.7681
▁랄	-10.7683
받았	-10.7685
▁놀아나는	-10.7688
ᄉᄁ	-10.7689
▁이게다	-10.7692
안해	-10.7692
▁있으면서	-10.7694
▁찍었	-10.7694
뚱	-10.7697
I	-10.7699
▁언제나	-10.77
▁수십조	-10.7701
▁생각해서	-10.7701
냄새	-10.7702
나오는	-10.7703
▁ᄅ	-10.7704
▁궁리	-10.7705
조건	-10.7706
한유총	-10.7707
▁악의	-10.7709
정권이	-10.7712
▁물러나	-10.7713
▁벌레	-10.7714
놓는	-10.7714
▁맡겨	-10.7715
히는	-10.7717
▁연예인들	-10.7718
당께	-10.7718
상승	-10.7719
벌레	-10.7719
▁걱정이다	-10.7723
근성	-10.7723
▁족속들	-10.7724
섭	-10.7726
▁지령	-10.7728
맞고	-10.7729
잼	-10.773
`	-10.7731
▁도람푸	-10.7731
▁멘붕	-10.7731
▁백악관	-10.7731
▁성접대	-10.7731
톤	-10.7731
▁로봇	-10.7731
▁저지른	-10.7731
▁교통	-10.7732
▁당분간	-10.7732
▁천안함	-10.7732
▁잠깐	-10.7732
▁무면허	-10.7732
▁역쉬	-10.7732
▁출생률	-10.7733
▁몰락	-10.7734
▁의미가	-10.7736
하더만	-10.7738
▁책임져라	-10.7738
▁천벌	-10.7741
▁마녀	-10.7743
▁하야해라	-10.7745
쳤다	-10.7745
▁뻔한데	-10.7745
▁문간첩	-10.7748
▁없었으면	-10.7748
▁다르네	-10.7749
▁아휴	-10.7749
꺼라	-10.7752
▁로비	-10.7752
용으로	-10.7756
▁현명한	-10.7757
못할	-10.7759
성과	-10.7763
▁인질로	-10.7763
▁외신	-10.7766
▁좌파들은	-10.7767
▁아쉽	-10.7771
▁시킬	-10.7774
▁진작에	-10.778
▁용돈	-10.7781
▁억울하	-10.7782
▁아침에	-10.7783
▁수순	-10.7783
▁퍼주려고	-10.7784
세끼	-10.7784
▁알겠지	-10.7787
걸리	-10.7787
병원	-10.7787
▁국정	-10.7789
▁나간	-10.779
▁있었으면	-10.7791
이겠지	-10.7793
명단	-10.7793
▁쩝쩝아	-10.7799
▁곰	-10.78
w	-10.78
▁간첩들	-10.78
▁아쉽다	-10.7804
높	-10.7804
▁장난치	-10.7804
▁필	-10.7804
▁도시	-10.7806
▁힘들어서	-10.7807
▁가능하	-10.7808
▁폰	-10.7811
씀	-10.7812
▁알수	-10.7814
기나	-10.7815
▁분석	-10.7817
▁교체	-10.7818
▁가족들	-10.7823
바로	-10.7825
▁이번에는	-10.7825
생각이	-10.7826
▁폭행	-10.7827
▁아니네	-10.7829
▁여성들이	-10.7829
..........	-10.783
▁흉	-10.7831
▁남탓만	-10.7832
▁근무	-10.7835
하겠지만	-10.7837
▁차량	-10.7838
▁볼턴	-10.7839
었음	-10.784
해줘	-10.784
▁따라서	-10.7842
▁만들자	-10.7843
끼야	-10.7847
단계	-10.7851
말아	-10.7851
▁정신들	-10.7852
▁거고	-10.7853
▁아들은	-10.7854
▁파악하고	-10.7854
▁기자야	-10.7856
학생	-10.7857
▁많지	-10.7858
▁냄새가	-10.786
줬다	-10.7862
중대	-10.7864
▁삐	-10.7864
했구만	-10.7865
▁잡아서	-10.7865
▁했나	-10.7866
▁일할	-10.7867
▁최선	-10.7867
▁외면	-10.7868
▁할말이	-10.787
▁악플러들	-10.787
▁했었	-10.7873
▁이겨	-10.7876
▁때문이	-10.7878
없다고	-10.7878
▁둔	-10.7881
▁일본과	-10.7883
▁망했다	-10.7884
▁불리한	-10.7884
▁우주	-10.7885
▁일본놈들	-10.7886
▁향해	-10.789
▁남한은	-10.789
▁양육	-10.789
▁정치는	-10.7896
공산	-10.7896
▁좋아하네	-10.7898
쪽에	-10.7899
첨	-10.7899
바람	-10.7903
▁정은이와	-10.7904
25	-10.7906
생산	-10.7915
다니며	-10.7918
▁불가	-10.7918
▁실상	-10.7919
▁가질	-10.792
운영	-10.7923
▁이북	-10.7923
▁좀비	-10.7925
▁황대표	-10.7925
▁쓸어	-10.7926
닷	-10.7927
밭	-10.7927
왓	-10.7927
▁삼일절	-10.7927
▁탈원전	-10.7927
아래	-10.7928
▁번영	-10.7928
▁첫째	-10.7929
▁기쁨조	-10.7929
▁성사	-10.793
▁마약검사	-10.793
▁이용만	-10.7932
▁뇌물	-10.7934
▁강력히	-10.7934
▁다니고	-10.7935
▁앉	-10.7935
▁2030	-10.7936
▁개무시	-10.7937
▁애쓴다	-10.7937
▁숨겨진	-10.7939
▁3000	-10.794
늘어	-10.7941
▁역사상	-10.7941
누가봐도	-10.7942
쓰면	-10.7943
▁명분이	-10.7943
▁다알고	-10.7944
▁고로	-10.7946
▁정치인들이	-10.7947
▁없이는	-10.7947
▁또다시	-10.7948
▁남한의	-10.7948
▁월남	-10.7949
▁풀고	-10.795
▁안쓰	-10.795
집권	-10.795
▁힘들지	-10.7952
▁생길	-10.7952
▁스몰딜	-10.7952
세가	-10.7953
▁공범이다	-10.7953
▁비핵	-10.7954
▁도배	-10.7955
십시오	-10.7959
▁이로써	-10.796
▁공짜로	-10.7961
▁맞았네	-10.7963
▁바꿔라	-10.7963
▁한몫	-10.7966
부는	-10.7966
▁인간의	-10.7967
▁중국을	-10.7969
▁쳤	-10.7969
▁한국남자	-10.7969
▁회담에서	-10.797
▁급하게	-10.7971
▁인질	-10.7972
▁카톡	-10.7975
▁교육이	-10.7975
▁떨고	-10.7975
▁판에	-10.7976
▁감추고	-10.7976
▁외국인들	-10.7978
▁한사람	-10.7979
▁언론사	-10.7982
▁주민들	-10.7982
▁빠르	-10.7984
▁이루어	-10.7984
았네	-10.7984
▁해줘	-10.7988
▁잘될	-10.7993
신나서	-10.7994
▁아무나	-10.7998
▁키운	-10.8003
하시오	-10.8005
▁목을	-10.8006
▁반대로	-10.8007
▁방학	-10.8009
▁주머니	-10.8011
▁생각하냐	-10.8016
▁중도	-10.8021
▁5000	-10.8023
▁되게	-10.8025
▁돌아간다	-10.8025
할걸	-10.8028
▁해달라고	-10.8031
도안	-10.8033
▁틀리	-10.8035
▁출생	-10.8035
싶지	-10.8037
화가	-10.8037
▁독일	-10.8039
▁남들	-10.8048
▁규모	-10.8053
당신	-10.8054
지도자	-10.8054
▁막말	-10.8058
▁교류	-10.8061
거리며	-10.8064
▁생각함	-10.8069
▁파기	-10.8069
셔서	-10.807
▁정권에	-10.8073
▁일년	-10.8075
▁퉤	-10.8076
▁이전에	-10.8078
▁아마도	-10.808
▁공개하라	-10.8082
▁바뀐	-10.8084
▁누르	-10.8084
꺼리	-10.8084
대변인	-10.8086
▁취업도	-10.8086
▁모지리	-10.8086
▁도태	-10.8088
▁태영호가	-10.8088
▁신문	-10.8089
형님	-10.8091
▁주장하는	-10.8092
▁끝나고	-10.8094
쩝	-10.8094
700	-10.8095
▁겨	-10.8095
흥	-10.8101
▁보여준	-10.8104
▁외치	-10.8104
개성공단	-10.8105
▁문재인한테	-10.8106
똘	-10.8108
색이	-10.8108
▁비율	-10.8112
▁출산장려	-10.8113
▁착한	-10.8114
차례	-10.8115
▁했더니	-10.8115
▁농락	-10.8118
▁퍼줬	-10.812
▁작작	-10.8122
그런데	-10.8122
▁수백	-10.8123
넓	-10.8125
오른	-10.8125
삭	-10.8126
▁공안검사	-10.8126
졋	-10.8127
▁칭찬	-10.8127
▁0.98	-10.8127
▁깜방	-10.8127
▁새기	-10.8128
일베	-10.8128
▁멸종	-10.8128
▁까는	-10.8129
육아	-10.813
강화	-10.8131
될것	-10.8131
▁따른	-10.8131
▁말이냐	-10.8133
▁죄값	-10.8133
▁곳에	-10.8134
▁우째	-10.8135
▁지네	-10.8135
재산	-10.8136
▁데모	-10.8136
▁병설	-10.8137
▁눈먼돈	-10.8138
▁트럼프랑	-10.814
해줘야	-10.8142
였나	-10.8146
**	-10.8146
▁디지	-10.8151
▁갈라	-10.8152
▁요구를	-10.8153
▁전라	-10.8155
한텐	-10.8157
▁죽게	-10.8157
▁지적	-10.8157
▁폭동	-10.8157
▁좋겠네	-10.8161
▁동조	-10.8165
▁핵포기는	-10.8166
밖	-10.817
▁공식	-10.817
▁막상	-10.817
▁경인선	-10.8171
서울	-10.8177
낫	-10.8178
▁할것이다	-10.8181
▁양키	-10.8183
쓴다	-10.8183
▁만들지	-10.8184
아프	-10.8185
드냐	-10.8186
▁불편	-10.8188
▁상위	-10.819
▁무서워	-10.8191
▁최고위원	-10.8194
▁똑똑	-10.8196
!!!!!!!!	-10.8199
▁환자	-10.8201
▁보고도	-10.8204
▁굶어	-10.8207
▁때는	-10.8209
▁대통령도	-10.8209
▁넘이	-10.821
▁드러났	-10.8211
▁줄어	-10.8213
이었음	-10.8216
원인	-10.8219
애를	-10.8226
▁버릇	-10.8226
▁예산을	-10.8227
▁눈을	-10.8229
말도	-10.8232
▁내자식	-10.8233
▁너나	-10.8234
▁길이다	-10.8235
▁잘됐다	-10.8241
사상	-10.8242
▁들켰	-10.8242
보이는	-10.8245
핑	-10.8247
빨갱이들	-10.8251
저출산	-10.8256
만원이	-10.8257
▁협상에	-10.8265
아빠	-10.8272
▁것인가	-10.8273
▁대접	-10.8273
빠져	-10.8275
▁벌레들	-10.8277
▁결혼해도	-10.8279
▁돼정은	-10.8281
것보다	-10.8281
▁신경써	-10.8283
▁시간만	-10.8286
▁왔는데	-10.8289
▁옛날에	-10.8291
읽	-10.8296
▁기대한다	-10.8297
▁실체	-10.8297
▁위하는	-10.8298
▁나쁘	-10.83
흐	-10.8304
▁휴가	-10.8305
멀	-10.8306
농	-10.8309
그라	-10.8309
▁짐승	-10.8311
▁우습	-10.8311
▁역사적	-10.8312
기위한	-10.8312
봅시다	-10.8313
▁망했	-10.832
숨겨	-10.832
an	-10.8323
--	-10.8323
▁권	-10.8324
만남	-10.8326
▁죽었다	-10.8329
벨	-10.8329
줍	-10.8329
춤	-10.833
쾌	-10.833
♥	-10.833
냔	-10.8331
▁베네수엘라	-10.8331
▁어설픈	-10.8331
줫	-10.8331
▁성인용품	-10.8331
▁두려워	-10.8331
▁경제협력	-10.8333
▁체포	-10.8334
▁걱정이	-10.8334
▁탄생	-10.8335
▁안달난	-10.8336
▁에혀	-10.8337
주는게	-10.8338
▁엄두	-10.8339
▁업무	-10.8339
차별	-10.8339
▁입증	-10.8341
놈을	-10.8342
▁쏙	-10.8343
▁있다는데	-10.8343
▁성과가	-10.8344
▁돈버는	-10.8344
▁엿먹	-10.8345
▁한유총을	-10.8346
겄냐	-10.8346
▁스마트폰	-10.8348
▁보복	-10.8351
▁있는건	-10.8351
▁어쩌라고	-10.8354
▁왜곡	-10.8356
▁찾는	-10.8358
언론들	-10.8362
▁소수	-10.8363
▁대가리에	-10.8364
▁뚱	-10.8366
하겠군	-10.8367
씨는	-10.8367
▁현금으로	-10.8371
예요	-10.8371
▁다리	-10.8372
▁어렵게	-10.8374
만봐도	-10.8374
▁아작	-10.8375
질러	-10.8376
▁주민	-10.8376
▁행동을	-10.8377
▁가르치	-10.8378
▁후진국	-10.8379
▁[	-10.8381
대화	-10.8382
것입니다	-10.8383
대비	-10.8384
▁팽	-10.8385
▁말하면	-10.8386
▁쥐고	-10.8387
▁뭘까	-10.8387
▁잡으면	-10.8389
할테니	-10.839
치다	-10.8396
▁지시	-10.8397
▁못하지	-10.8397
▁거라고	-10.8398
▁아줌마	-10.8405
조를	-10.8406
▁보내는	-10.8408
▁반응	-10.8408
800	-10.8408
나오면	-10.8408
햇다	-10.8409
이란다	-10.8411
▁엮	-10.8411
▁자한당의	-10.8411
큼	-10.8414
▁참여	-10.8414
▁빨아주	-10.8415
거아냐	-10.8416
되는게	-10.8417
▁뭐라도	-10.8418
▁뭉쳐	-10.8418
도없이	-10.8418
받는다	-10.8419
▁영웅	-10.842
▁대부분이	-10.8421
는거네	-10.8422
▁꽃	-10.8424
▁화가	-10.8425
▁붙이	-10.8426
댄	-10.8427
주냐	-10.8429
▁뭐해	-10.8431
▁T	-10.8435
뭐냐	-10.8435
▁욕먹	-10.8437
▁통해서	-10.8441
▁지배	-10.8441
▁대중이	-10.8445
함을	-10.8448
▁쳐다	-10.8448
▁뒤질	-10.845
이야기	-10.8451
▁청와대가	-10.8452
▁잡아라	-10.8455
에대해	-10.8462
▁않겠다	-10.8462
둬라	-10.8465
▁깨끗	-10.8466
▁말이지	-10.8468
벗고	-10.8468
줄알고	-10.8471
▁이나라에	-10.8475
▁팬	-10.8482
▁이민자	-10.8485
▁보조	-10.8487
▁닥	-10.8494
텐	-10.8499
▁수밖에	-10.85
▁문제고	-10.8502
▁국고	-10.8503
▁배신	-10.8509
원도	-10.8513
▁아시	-10.8513
고있는데	-10.8519
쌍	-10.852
밤	-10.8523
▁군대는	-10.8523
략	-10.8524
붕괴	-10.8525
종전선언	-10.8526
키울	-10.8529
▁자원	-10.8537
뿐인	-10.8538
해진다	-10.8539
▁택시업계	-10.8539
▁배웠	-10.8539
▁애시당초	-10.8539
▁펑펑	-10.8539
▁굉장	-10.8539
▁립서비스	-10.8539
▁나가야	-10.8539
▁연예계	-10.854
▁기원합니다	-10.854
▁호구로	-10.8541
▁앞뒤	-10.8541
▁비밀핵시설	-10.8542
▁가짜유공자	-10.8542
▁지롤	-10.8543
▁색출	-10.8544
▁먹이	-10.8544
▁망친	-10.8547
▁위장평화쇼	-10.8548
봤는데	-10.8549
▁다닐	-10.855
대출	-10.8551
드러	-10.8554
▁허가	-10.8555
▁북한대변인	-10.8556
▁위험한	-10.8556
▁0.5	-10.8557
▁생각나네	-10.8562
새꺄	-10.8562
철도	-10.8564
▁퇴	-10.8566
▁친일파들	-10.8566
▁안철수	-10.8568
▁사람만	-10.8568
▁담마진	-10.8571
같은거	-10.8571
▁반역자	-10.8573
▁전세계에	-10.8574
▁만든다	-10.8575
▁화합	-10.8576
할거라	-10.8579
▁관심없	-10.858
▁정도는	-10.8581
사리	-10.8583
▁돈줄	-10.8583
▁싸우고	-10.8585
▁D	-10.8585
그걸	-10.8586
▁맺	-10.859
린거	-10.8593
▁소리하네	-10.8593
부르	-10.8594
▁바보로	-10.8595
▁무력	-10.8597
세워	-10.8598
▁안할거	-10.8598
▁그전에	-10.8601
▁영국	-10.8603
▁알기	-10.8605
▁없잖아	-10.8606
▁입시	-10.8606
물가	-10.8606
▁시간에	-10.8607
을까요	-10.8608
▁바라보	-10.861
북한에	-10.861
▁혹시나	-10.861
자격	-10.8611
써라	-10.8612
▁일상	-10.8613
▁책임은	-10.8616
or	-10.8616
▁사기치고	-10.8621
▁개돼지들아	-10.8623
지않는다	-10.8626
▁비핵화의	-10.8626
▁사유	-10.8627
뿌리	-10.8631
▁하다니	-10.8631
▁해피벌룬이	-10.8632
억이	-10.8634
돼지가	-10.8636
졌는데	-10.8637
▁개재앙	-10.8638
▁될거다	-10.8638
▁아까	-10.8641
▁타도	-10.8641
▁국가에	-10.8642
▁북한군	-10.8645
▁바라보고	-10.8648
정은이가	-10.8649
▁등에	-10.8651
▁멍멍	-10.8651
파티	-10.8653
▁그러는	-10.8654
꼴이	-10.8654
▁생각으로	-10.8655
갱	-10.8656
였고	-10.8656
▁건너	-10.8658
▁줄고	-10.8662
▁빅	-10.8662
까고	-10.8663
▁쏠	-10.8664
▁뒤져	-10.8665
▁미국이랑	-10.8666
공사	-10.8667
소속	-10.8669
,,,,,,,	-10.8671
▁똑같다	-10.8672
정책을	-10.8677
진영	-10.8678
▁죽어가	-10.8681
▁김정	-10.8682
▁날로	-10.8683
주라	-10.8686
▁느껴	-10.8689
▁분들이	-10.8693
▁이용해서	-10.8696
▁애기들	-10.8697
▁안심	-10.8701
▁딸도	-10.8708
혐오	-10.8709
▁도와주는	-10.871
인척	-10.871
▁할수있	-10.8712
주도	-10.8712
▁뽑는	-10.8718
▁북한주민들	-10.8721
▁바꿔야	-10.8727
줄까	-10.8731
지켜	-10.8731
▁정치인이	-10.8731
▁들통	-10.8733
맹	-10.8734
미사일	-10.8735
▁핵만들	-10.8735
칭	-10.8735
▁혁명	-10.8736
보네	-10.8736
▁문정권은	-10.8738
뛰	-10.8738
▁하도	-10.8738
썼	-10.8741
▁문제로	-10.8742
▁파쇄차	-10.8742
클	-10.8742
씹	-10.8743
교활	-10.8743
즉	-10.8744
끊	-10.8744
▁국제적	-10.8744
하겠나	-10.8745
핑계	-10.8747
하는건데	-10.8747
전략	-10.8747
▁없기	-10.8748
힘든	-10.8748
그러니	-10.8748
▁정신병	-10.8749
▁치킨	-10.875
흡	-10.875
▁바랄	-10.875
▁경험해보지	-10.8752
▁바뀔	-10.8752
봣	-10.8752
▁낙동강	-10.8752
▁병간호	-10.8752
▁오리알	-10.8752
▁방위비	-10.8752
▁썩어빠진	-10.8752
옵니다	-10.8752
▁치우	-10.8752
▁깨닫	-10.8753
▁패널	-10.8753
▁비싸고	-10.8754
▁두렵	-10.8754
생긴	-10.8755
▁남북관계	-10.8756
▁댓글알바	-10.8757
양반	-10.8757
▁실현	-10.8757
▁오픈	-10.8757
▁불통	-10.8758
▁허락	-10.8758
치네	-10.8758
▁조금씩	-10.8758
▁옆에	-10.8759
▁암것도	-10.876
▁외교적	-10.8761
네ᄏᄏᄏ	-10.8761
▁올릴	-10.8761
▁깔아	-10.8761
▁조폭	-10.8762
▁판매	-10.8762
▁일당들	-10.8763
걸려	-10.8763
▁문가는	-10.8764
▁네가	-10.8764
해제	-10.8764
▁공포	-10.8764
▁동참	-10.8766
분열	-10.8766
▁기본적인	-10.8766
국민들이	-10.8766
▁엄마가	-10.8767
▁주범	-10.8769
들이야	-10.877
▁남북평화	-10.8772
차회담	-10.8773
놓은거	-10.8774
▁어떠한	-10.8774
영화	-10.8774
▁뭐만하면	-10.8775
▁I	-10.8778
▁없었던	-10.8779
한건가	-10.8784
▁정부지원	-10.8785
될까	-10.8786
▁당하는	-10.8786
▁애키우	-10.8786
만세	-10.8787
▁않아요	-10.8787
▁김씨	-10.8789
▁정상화	-10.879
해달라	-10.8793
▁급여	-10.8793
▁댓글을	-10.8797
▁친미	-10.8798
▁쇼만	-10.8798
인디	-10.8799
과의	-10.88
각하	-10.88
▁지원하는	-10.88
스럽고	-10.8801
▁참고	-10.8801
.........	-10.8801
▁욕을	-10.8802
▁생기면	-10.8802
애기	-10.8803
드네	-10.8804
▁휴대폰	-10.8804
▁모르면	-10.8805
▁했을까	-10.8807
▁책임질	-10.8808
▁베트남에	-10.8809
전문가	-10.8809
▁정체가	-10.881
▁만만한	-10.881
▁노비	-10.8812
▁나왔다	-10.8813
안에서	-10.8815
나오네	-10.8816
▁위치	-10.8817
▁몰랐어도	-10.8817
▁방어	-10.8822
인거야	-10.8822
▁옵션	-10.8824
도아니고	-10.8826
▁작성	-10.8828
▁원망	-10.883
▁웃긴	-10.883
▁없게	-10.8831
▁그땐	-10.8834
▁문대통령은	-10.8836
▁보다는	-10.8836
▁아픈	-10.8838
▁것인지	-10.884
공개	-10.884
▁저질	-10.8841
되는건	-10.8846
▁자진	-10.8846
▁남기	-10.885
▁만난	-10.8854
▁혼자서	-10.8859
하지않고	-10.8862
▁웃기고	-10.8863
▁기본이	-10.8867
▁팔아먹	-10.8872
▁폭력	-10.8873
것지	-10.8875
▁덤	-10.8876
▁어른	-10.8876
▁포기하면	-10.8879
해보세요	-10.8879
▁바라지	-10.8879
▁어렵다	-10.8881
부정	-10.8882
구라	-10.889
모아	-10.889
▁물러	-10.8894
▁위반	-10.8895
가튼	-10.8897
▁부끄러운줄	-10.89
생기	-10.8905
▁내야	-10.8906
당장	-10.8908
▁안좋아	-10.8909
▁어리석	-10.8911
걸린	-10.8913
드만	-10.8917
▁토착왜구	-10.892
▁안한	-10.892
▁나서야	-10.892
▁짧	-10.8921
버리자	-10.8931
▁않는데	-10.8932
▁해주면	-10.8935
주시고	-10.8935
▁지들은	-10.8938
▁영변외에	-10.8939
▁다만	-10.8939
지급	-10.894
리를	-10.894
▁기를	-10.8942
▁천만	-10.8943
주년	-10.8944
▁그려	-10.8946
▁걸고	-10.8949
▁만만	-10.895
어찌	-10.895
▁안되서	-10.8952
▁우리한테	-10.8953
▁태어나는	-10.8953
붓	-10.8954
▁늙	-10.8954
낭비	-10.8957
빠졌	-10.8958
▁좌빠	-10.8962
▁때까지	-10.8965
칙	-10.8966
어린이집	-10.8966
▁적게	-10.8967
답답	-10.8967
''	-10.8968
냅시다	-10.8968
▁달창들은	-10.8969
▁무기징역	-10.8969
▁수두룩	-10.8969
▁시끄럽	-10.8969
▁어버버	-10.8969
▁어려움	-10.8969
▁천만다행	-10.8969
▁행복회로	-10.8969
▁부럽다	-10.8969
▁oled	-10.8969
▁화풀이	-10.8969
▁침략	-10.897
▁한국정부	-10.897
▁갓럼프	-10.897
▁탐욕	-10.897
▁쪽발이	-10.897
▁인지	-10.8971
▁쓸데없이	-10.8971
▁고객	-10.8972
▁존립	-10.8972
▁있으니까	-10.8972
▁가해자	-10.8973
▁내놓고	-10.8973
▁날아가	-10.8973
▁바짝	-10.8975
방위	-10.8976
끌	-10.8977
▁조차	-10.8977
▁협조	-10.8977
▁가끔	-10.8978
▁핵미사일	-10.8978
▁압도적	-10.8978
안정	-10.8979
▁정확하게	-10.898
▁하나가	-10.8982
▁쇼에	-10.8982
원들	-10.8982
맞아	-10.8982
개가	-10.8984
▁번식	-10.8984
▁않네	-10.8985
▁믿었	-10.8985
평등	-10.8987
사장	-10.8988
▁새끼야	-10.8991
▁이나라를	-10.8994
▁걱정된다	-10.8996
내면	-10.8996
저리	-10.8997
챙겨	-10.8997
▁안나온다	-10.8998
하락	-10.8999
▁덮어	-10.8999
지키	-10.9
▁유엔	-10.9
수있게	-10.9002
▁LCD	-10.9002
▁구원투수	-10.9002
▁시바	-10.9003
▁택시기사들	-10.9004
▁강조	-10.9006
▁노벨평화상	-10.9007
▁쫑	-10.9008
▁깨끗한	-10.9008
무장	-10.9009
관심	-10.9012
▁밖에서	-10.9012
▁손자	-10.9013
▁병원비	-10.9016
▁4.	-10.9016
▁도데체	-10.9018
여부	-10.9018
▁제제완화	-10.9019
군사	-10.9021
▁내내	-10.9022
▁싶네	-10.9024
▁양극화	-10.9028
했다가	-10.9029
▁한쪽	-10.9035
▁끝나면	-10.9036
▁단계	-10.9037
가능한	-10.9037
▁찌라시	-10.9038
▁고등학교	-10.904
▁돼정은이	-10.9042
▁지원해주	-10.9042
다니고	-10.9043
▁주시	-10.9046
▁그간	-10.9046
보다도	-10.9046
▁ᄌ같은	-10.9048
▁싫어요	-10.9056
되든	-10.9059
인상	-10.9059
심이	-10.9059
▁머가	-10.9059
▁11	-10.9061
▁문재인아	-10.9063
런지	-10.9064
▁이런건	-10.907
▁이정권	-10.9071
감축	-10.9072
▁잡혀	-10.9073
▁좌빨들아	-10.9073
▁이모양	-10.9074
▁하지않	-10.9074
▁지불	-10.9075
낫다	-10.9077
▁진리	-10.9078
▁밑에	-10.9079
▁적자	-10.9079
▁그만두	-10.908
▁아이에게	-10.9081
▁야근	-10.9083
▁혜택이	-10.9084
▁하고싶	-10.9087
댄다	-10.9088
식의	-10.9093
▁여기는	-10.9094
한답시고	-10.9094
는디	-10.9098
나보다	-10.9098
▁설레발치	-10.9099
▁북괴는	-10.91
▁옹호하는	-10.9101
▁방송사	-10.9102
하자는	-10.9104
▁나을	-10.9104
▁흘러	-10.9105
드는데	-10.9106
들어라	-10.9109
▁또는	-10.9114
▁우리정부는	-10.9117
▁가입	-10.9119
▁노는	-10.9119
▁있다는거	-10.9123
▁들리	-10.9124
▁싸인	-10.9126
졸	-10.9129
▁전까지	-10.9129
▁쟤	-10.9131
▁싸게	-10.9134
▁저정도	-10.9135
▁자리에	-10.9136
▁새끼들아	-10.9137
렸는데	-10.9137
▁싫고	-10.9141
▁망치는	-10.9145
돕	-10.9146
▁이정부	-10.9148
▁이번회담	-10.9148
▁핵폐기는	-10.9152
기때문에	-10.9153
▁많을	-10.9153
국내	-10.9154
중재	-10.9156
▁바보들	-10.9156
자들의	-10.9159
첩	-10.9159
▁중국에서	-10.9161
▁해달라	-10.9162
▁이득이	-10.9163
▁훈련	-10.9163
시키려고	-10.9165
▁경제에	-10.9174
▁민간	-10.9178
나라를	-10.9181
공화국	-10.9182
▁개누리	-10.9183
윈	-10.9184
▁연장	-10.9184
▁이스라엘	-10.9185
놓으면	-10.9185
▁맞은	-10.9185
▁폐기할	-10.9189
뒀	-10.9192
룸	-10.9192
▁정확한	-10.9192
▁깽판	-10.9192
▁집구석	-10.9192
샠	-10.9192
▁박사모	-10.9192
YG	-10.9192
▁kt	-10.9192
▁언플	-10.9193
려니	-10.9193
탑	-10.9193
어차피	-10.9193
▁명품	-10.9194
▁실무진	-10.9195
▁연방제	-10.9195
▁부활	-10.9196
갑시다	-10.9196
민주주의	-10.9197
▁출산도	-10.9197
확실	-10.9198
▁않아도	-10.9198
▁들켜서	-10.92
▁피곤	-10.92
▁위원장님	-10.9201
연합	-10.9202
▁많습니다	-10.9202
▁괴롭히	-10.9204
아무	-10.9206
▁하셨	-10.9206
강력	-10.9208
▁기획사	-10.9208
▁심각하다	-10.9208
▁강도	-10.9208
▁대표로	-10.9208
▁법대로	-10.9209
▁혈안이	-10.9209
투쟁	-10.921
▁나오냐	-10.9211
▁검	-10.9212
▁아이디	-10.9214
▁유입	-10.9215
있어요	-10.9215
▁리더	-10.9216
갔냐	-10.9217
▁주는게	-10.9218
▁창피	-10.9221
말은	-10.9221
▁양현석이	-10.9224
▁연속	-10.9225
▁통치	-10.9226
▁남겨	-10.9228
▁운영하는	-10.923
▁세번	-10.9231
▁댓글달	-10.9232
▁자신들의	-10.9232
▁탄핵해야	-10.9235
▁비상	-10.9238
▁살아가는	-10.9239
어느	-10.924
▁가까운	-10.9241
▁고물	-10.9241
▁신세	-10.9243
한테도	-10.9246
▁기간	-10.925
건설	-10.9252
먹어	-10.9255
▁얹	-10.9256
▁식당	-10.9257
때문이	-10.9257
시네	-10.9258
▁넘겨	-10.926
겠노	-10.9261
▁시킨	-10.9262
▁못사는	-10.9262
▁가르	-10.9265
하시네	-10.9267
무시	-10.9267
안하는	-10.9274
st	-10.9277
▁f	-10.9279
▁회복	-10.928
▁안하겠다	-10.928
이번	-10.9282
▁환상	-10.9282
없냐	-10.9283
이거	-10.9284
▁단체로	-10.9285
▁비서	-10.9285
▁짖	-10.9286
▁미세	-10.9286
▁국민만	-10.9287
▁대화가	-10.929
▁특별	-10.9291
▁군대나	-10.9292
▁너네가	-10.9295
박이	-10.9295
▁빨아먹	-10.9296
되어서	-10.9297
▁O	-10.9299
▁기념	-10.93
거봐라	-10.9305
▁시간은	-10.9306
▁해준다	-10.9316
지말라	-10.9319
▁믿음이	-10.9319
▁사인	-10.932
▁학대	-10.9324
▁꼬라지가	-10.9326
▁얘네	-10.9329
ᅲᅲᅲ	-10.9331
집안	-10.9336
▁해줘야	-10.934
이유가	-10.934
▁낳을까	-10.9341
▁날뛰	-10.9343
▁안되냐	-10.9348
분의	-10.9352
내지	-10.9355
쳐먹고	-10.9358
먼지	-10.9358
▁지켜주	-10.9358
놔서	-10.9359
볼까	-10.936
▁해봐야	-10.9361
▁통한	-10.9364
전부	-10.9364
▁미국이다	-10.9366
▁거리는	-10.937
할뿐	-10.9375
▁시키들	-10.9378
에휴	-10.9379
▁사전	-10.9381
▁갈수	-10.9383
▁하자고	-10.9384
▁나옴	-10.9387
▁숨도	-10.9387
년안에	-10.9388
▁믿음	-10.939
▁혈세를	-10.9394
었을까	-10.9394
▁아이들은	-10.9395
해진	-10.9397
시위	-10.9398
깝	-10.9403
나갈	-10.9403
▁세끼	-10.9404
▁남한에	-10.9405
▁되는지	-10.9407
▁땐	-10.941
▁목숨을	-10.9413
▁임산부	-10.9414
일이다	-10.9414
는듯	-10.9415
겄	-10.9415
▁챙기는	-10.9416
컷	-10.9417
릅	-10.9418
▁살기가	-10.9418
▁중산층	-10.9419
W	-10.9419
▁워마드	-10.9419
▁깜짝	-10.9419
▁조중동	-10.9419
▁영원한	-10.9419
▁고양이	-10.9419
▁교도소	-10.9419
▁최우선	-10.9419
▁불구하고	-10.9419
▁슬슬	-10.9419
▁이간질	-10.9419
▁군미필	-10.9419
▁어쩜	-10.942
▁태영호공사	-10.942
▁나타나	-10.942
▁뒈지	-10.942
▁자기들이	-10.9421
▁죽을때까지	-10.9422
뻘	-10.9422
섹	-10.9423
▁아이러니	-10.9423
▁치열하게	-10.9423
싹	-10.9424
매국노	-10.9425
▁문자	-10.9426
▁답변	-10.9427
▁대상이	-10.9428
문통	-10.9429
▁안속	-10.943
ᄋᄋ	-10.943
돼지새끼	-10.943
▁출발	-10.943
▁할수있는	-10.9431
부로	-10.9431
▁영변시설	-10.9431
▁썩었	-10.9431
또라이	-10.9432
선택	-10.9433
▁한마리	-10.9433
최악	-10.9434
▁문제앙	-10.9434
폭파	-10.9435
▁저럴	-10.9439
타격	-10.9439
▁학원비	-10.9441
▁주작	-10.9442
▁되니까	-10.9442
▁생겼는데	-10.9444
▁미루	-10.9444
▁없으니까	-10.9445
▁들통났	-10.9445
▁그럴줄	-10.9447
▁식으로	-10.9447
▁악화	-10.9448
▁통일되면	-10.945
다닐	-10.945
▁집행	-10.9452
▁수시	-10.9452
▁핵전쟁	-10.9452
▁없던	-10.9452
▁차례	-10.9452
▁답이없다	-10.9453
▁특전사	-10.9453
▁하다하다	-10.9453
해야합니다	-10.9454
님은	-10.9458
겄네	-10.9459
니가	-10.9459
▁알았어	-10.9462
▁붙여	-10.9462
▁중공	-10.9463
한거야	-10.9463
넘들이	-10.9463
▁있을듯	-10.9463
속이	-10.9465
▁대갈통	-10.9465
아닌데	-10.9467
▁죽여야	-10.9471
▁부정적	-10.9472
여기	-10.9472
▁뻥카	-10.9472
▁왜냐	-10.9472
▁활	-10.9478
제품	-10.948
▁받는다	-10.9482
▁태어나서	-10.9482
늠들	-10.9483
▁잘해라	-10.9485
▁안맞	-10.9486
▁안그래	-10.9487
▁위성	-10.9492
▁뿌	-10.9493
▁단지	-10.9494
하하	-10.9498
▁방안	-10.9498
▁남여	-10.9499
▁최선을	-10.9499
▁근처	-10.9501
▁떵	-10.9501
▁괴뢰	-10.9501
소식	-10.9502
체계	-10.9502
싸우	-10.9503
▁가는길	-10.9504
없애고	-10.9505
▁예상했던	-10.9506
▁쥐새끼	-10.9508
감소	-10.9509
▁하나하나	-10.9509
▁있었냐	-10.951
▁실패한	-10.9512
▁순서	-10.9515
▁니미	-10.9515
▁ᄃᄃᄃ	-10.952
▁황당	-10.9522
▁구라치다	-10.9527
▁매달리	-10.9528
▁잇는	-10.9528
▁여자한테	-10.9529
▁늘리고	-10.9531
▁노예가	-10.9531
었고	-10.9533
99	-10.9535
▁얻은	-10.9537
일당	-10.9538
▁아시아	-10.9539
▁버려라	-10.9541
▁나머지는	-10.9542
▁뽀록	-10.9544
▁추종자들	-10.9546
줄아나	-10.9547
▁그러고도	-10.9548
▁알아보	-10.9549
▁교육부가	-10.9549
드립	-10.955
xx	-10.9551
▁막히	-10.9553
보니까	-10.9554
▁사이에	-10.9554
▁김치년들	-10.9555
▁극혐	-10.9557
▁공적	-10.9557
▁바뀌면	-10.9559
전부터	-10.9559
▁하라는	-10.9562
데요	-10.9563
공부	-10.9564
▁마니	-10.9566
달고	-10.9566
▁생기고	-10.9566
하거든	-10.9566
▁나라와	-10.9569
쯧쯧	-10.9569
▁수꼴	-10.9571
▁즐기	-10.9576
▁계시	-10.958
▁색히	-10.9583
일수	-10.9583
▁재판	-10.9585
▁모르는데	-10.9586
▁시청	-10.9589
였냐	-10.9589
▁고통받	-10.959
▁니네들	-10.9592
▁시설을	-10.9592
▁기자님	-10.9594
▁놔두	-10.9594
▁선생님	-10.9595
▁한두	-10.9598
▁유치원비	-10.9602
▁해결해	-10.9612
하시죠	-10.9613
먹으려	-10.9615
▁중심	-10.9615
수입	-10.9615
▁댓글다는	-10.9615
방에	-10.9616
달아	-10.9619
▁있었어	-10.962
▁t	-10.9621
▁젊은이	-10.9622
노인	-10.9622
한대	-10.9628
▁조정	-10.9628
▁했음	-10.9628
▁힘으로	-10.9629
▁가네	-10.9629
환자	-10.963
▁영구	-10.9631
▁책임이	-10.9634
늬	-10.9635
해야하는	-10.9636
▁행사	-10.9638
▁뒤집	-10.9639
인거다	-10.9641
▁이르	-10.9642
▁효과가	-10.9645
▁내려와	-10.9647
찔	-10.9648
쑤	-10.9649
뱃	-10.965
횡	-10.9651
▁보이콧	-10.9651
▁펼치	-10.9651
▁활성화	-10.9651
▁철저하게	-10.9651
😡	-10.9651
▁배달대행	-10.9651
▁공립유치원	-10.9653
▁양념	-10.9653
▁흑우	-10.9654
▁역사는	-10.9655
▁그놈	-10.9655
▁국제결혼	-10.9655
▁왕창	-10.9656
▁딱봐도	-10.9657
▁문석탄	-10.9657
▁경제폭망	-10.9658
▁밟	-10.9658
지네	-10.9659
쪽에서	-10.9659
▁장담	-10.9659
해주시길	-10.966
년차	-10.966
▁경계	-10.9661
▁폭발	-10.9661
러시아	-10.9663
서비스	-10.9664
▁완전비핵화	-10.9664
주제에	-10.9664
▁미투	-10.9664
몬	-10.9665
싫어	-10.9666
▁속인거	-10.9666
근혜	-10.9668
▁입양	-10.9668
들이나	-10.967
▁삥뜯	-10.967
▁똑	-10.9672
▁지도자가	-10.9676
▁되잖아	-10.9678
...........	-10.9678
▁필요없	-10.9678
▁실시간	-10.9679
▁끝장	-10.9679
▁않으니	-10.968
▁통합	-10.9681
▁정체성	-10.9681
▁안낳을	-10.9681
▁잘하는게	-10.9682
▁빨갱이들이	-10.9682
▁믿어야지	-10.9683
▁국군	-10.9684
▁쓰지말고	-10.9685
▁알겠냐	-10.9685
이름	-10.9685
색히들	-10.9686
▁영상	-10.9687
▁시간끌기	-10.9689
▁예의	-10.9689
▁단합	-10.969
▁따르	-10.969
▁개나	-10.9692
▁IMF	-10.9692
몰이	-10.9692
봤냐	-10.9695
확인	-10.9695
▁댓	-10.9695
온거	-10.9695
▁봐서	-10.9697
잃고	-10.97
▁땜에	-10.97
▁기피	-10.9702
▁스캔들	-10.9703
이하	-10.9704
주면서	-10.9708
▁꽉	-10.9708
▁유치	-10.9711
젠	-10.9713
▁하더만	-10.9714
행복	-10.9714
섰	-10.9715
▁꿈꾸	-10.9717
ch	-10.9717
▁둥	-10.9717
▁내수	-10.9717
▁한마디도	-10.9717
▁지출	-10.9719
▁^	-10.9721
▁적폐로	-10.9722
▁정년	-10.9722
▁시선	-10.9724
명도	-10.9725
▁중요한건	-10.9729
▁꼰대들	-10.9731
▁탁	-10.9731
하겟	-10.9732
▁뜻대로	-10.9732
다보면	-10.9734
된거지	-10.9735
했어야	-10.9736
▁부역자	-10.9736
▁두드러기로	-10.9742
▁말하지	-10.9742
▁운명이	-10.9744
▁기대해	-10.9746
껀	-10.9746
▁있겠지만	-10.9747
▁썩을	-10.9748
▁*	-10.9751
▁일자리는	-10.9754
지말아야	-10.9755
등신	-10.9756
▁이제야	-10.9757
살다	-10.9759
▁발악	-10.976
▁결혼과	-10.976
▁개쪽	-10.9766
▁좋지만	-10.9767
▁사는거	-10.9768
대통령님	-10.9774
없나	-10.9775
것인지	-10.9776
▁못사	-10.978
거란	-10.9781
토론	-10.9781
▁부부들	-10.9784
▁자세	-10.9787
▁달성	-10.979
▁썼다	-10.9793
▁수령	-10.9795
▁주시길	-10.9795
못하게	-10.9796
▁분이	-10.9797
사정	-10.9798
▁보이냐	-10.9799
▁현재의	-10.9799
▁국내경제	-10.9801
▁하던가	-10.9805
된게	-10.981
▁달라지	-10.9812
▁신중	-10.9813
▁돈좀	-10.9814
▁풀리	-10.9816
있어라	-10.9816
아기	-10.9817
▁요구하는	-10.9818
하믄	-10.9819
▁편들	-10.9823
놔야	-10.9827
▁이러지	-10.9831
자너	-10.9832
십시요	-10.9832
▁기다리고	-10.9833
▁내년에	-10.9833
▁문재인에게	-10.9834
▁안믿	-10.9835
▁누구는	-10.9837
▁넘들이	-10.9838
▁자료	-10.984
벌이	-10.9843
되면서	-10.9843
내내	-10.9848
것들아	-10.9849
▁무한	-10.9849
길이	-10.9851
ᄑ	-10.9852
▁원인을	-10.9854
▁붕	-10.9856
▁m	-10.9857
er	-10.9863
▁전부터	-10.9874
렵	-10.9883
un	-10.9884
▁그날	-10.9884
랍	-10.9887
앵	-10.9889
😁	-10.9889
륙	-10.9889
츠	-10.9889
▁주둥아리	-10.9889
▁차근차근	-10.9889
▁홧팅	-10.9889
링	-10.9889
▁조두순	-10.9889
▁못퍼줘서	-10.9889
▁이적행위	-10.9889
▁정신차릴	-10.9889
▁보내야	-10.989
맞는	-10.989
▁박차고	-10.989
▁성조기	-10.989
▁지하철	-10.989
▁마무리	-10.9891
▁이지경	-10.9892
▁출산장려금	-10.9892
▁아무튼	-10.9893
▁순순	-10.9894
▁늙어	-10.9894
▁후퇴	-10.9894
▁팔고	-10.9895
▁지뢰	-10.9895
▁--	-10.9896
▁머냐	-10.9897
▁제품	-10.9897
▁쓸모	-10.9898
▁정권유지	-10.9898
▁성격	-10.9898
▁집착	-10.9899
했잖아	-10.9899
▁있겠나	-10.9899
▁모르겠지만	-10.9899
뜯어	-10.99
▁논란	-10.9901
ᅡ	-10.9901
▁절실	-10.9901
▁앞장서	-10.9903
▁저놈	-10.9903
▁선출	-10.9904
▁개꿀	-10.9904
햐	-10.9904
맥	-10.9905
ᄃᄃ	-10.9905
▁개호구	-10.9906
▁나혼자	-10.9907
하겠는가	-10.9908
곧	-10.9908
▁얼렁뚱땅	-10.9909
▁불가능한	-10.991
장님	-10.991
▁쟤네	-10.991
▁걸릴	-10.991
파괴	-10.9911
▁제정신이	-10.9911
북에	-10.9913
▁만들어주세요	-10.9914
▁귀국	-10.9915
혈세	-10.9916
▁미쳤	-10.9917
▁애들한테	-10.992
▁16	-10.992
▁니놈	-10.9921
▁개돼지들은	-10.9921
▁어벙	-10.9921
▁보고싶	-10.9925
▁손석희	-10.9926
용품	-10.9926
할땐	-10.9927
▁조공	-10.9928
▁용기	-10.9931
왔네	-10.9931
혁명	-10.9932
보유	-10.9932
▁안하	-10.9934
▁유치원생	-10.9941
댕기	-10.9941
▁나라인데	-10.9942
데리고	-10.9942
???????	-10.9943
대한	-10.9943
▁필요도	-10.9944
▁트형	-10.9946
쇼를	-10.9946
만큼은	-10.9948
이거나	-10.9948
▁ᄉᄁ들	-10.995
▁문제인은	-10.9951
▁학부모가	-10.9953
집단이	-10.9954
▁문제의	-10.9955
▁서해	-10.9959
▁달려가	-10.9959
인들은	-10.996
문빠	-10.9961
상관	-10.9961
▁오바	-10.9965
▁판국에	-10.9965
▁기회가	-10.9966
발광	-10.9967
▁먼저다	-10.9968
네ᄏ	-10.9968
▁생쇼	-10.9969
▁순실이	-10.9971
▁강경	-10.9972
▁쉐	-10.9976
▁국력	-10.9976
▁챙기고	-10.9977
▁안됐	-10.9978
총선	-10.9979
▁인정하는	-10.9979
▁처먹고	-10.9979
지롱	-10.9979
▁왜케	-10.998
▁니들도	-10.998
리즘	-10.998
받지	-10.998
▁철책	-10.9981
▁문재인만	-10.9983
▁대상	-10.9984
댕	-10.9985
해야하는거	-10.9987
▁우리나라도	-10.999
▁밝혀진	-10.9991
라는건	-10.9992
▁플	-10.9994
남북	-10.9996
▁드립	-10.9998
▁국가는	-11.0002
안나오	-11.0004
란히	-11.0007
▁무기한	-11.0008
▁교육은	-11.0009
▁돈쓰	-11.0011
전라도	-11.0012
제한	-11.0014
▁돌아가서	-11.0016
추종	-11.0016
▁남성들	-11.0022
▁밑장빼기하다	-11.0022
▁방송에서	-11.0022
▁밀리	-11.0025
▁애낳으라	-11.0027
▁좋으면	-11.0028
▁개그	-11.0029
▁결혼이	-11.0029
겄지	-11.0029
▁그분	-11.0032
▁안낳는거	-11.0033
▁내밀	-11.0034
▁빨갱이가	-11.0034
▁올리는	-11.0035
▁한것	-11.0041
▁웃기지	-11.0043
▁지속적	-11.0043
▁전시	-11.0045
▁무죄	-11.0046
▁때부터	-11.0049
진거	-11.0049
▁어쩌면	-11.005
▁아내가	-11.005
▁느끼는	-11.005
▁보이네	-11.005
놨는데	-11.005
▁울고	-11.0051
▁반공	-11.0054
먹어라	-11.0055
▁똥을	-11.0055
▁사라지는	-11.0057
년만	-11.0057
▁해주는	-11.0057
▁예견	-11.0059
▁던져	-11.0059
▁안타깝	-11.006
장에	-11.0062
거아닌가	-11.0063
▁주적이	-11.0064
▁좋아라	-11.0065
▁회사에서	-11.0065
넘은	-11.0071
▁잡은	-11.0071
▁자식도	-11.0071
하겠니	-11.0074
▁풀어달라	-11.0074
▁진작	-11.0079
▁인간아	-11.008
▁너네들	-11.0081
평가	-11.0081
▁움직이	-11.0083
▁나대지	-11.0083
▁할거다	-11.0083
▁잘되면	-11.0084
▁통하지	-11.0084
▁볼모	-11.0085
▁망해야	-11.0085
▁슬프	-11.0091
▁답다	-11.0092
▁팩트는	-11.0093
하진	-11.0095
꺼고	-11.0096
완화	-11.0097
▁대학교	-11.0097
▁보내라	-11.0098
▁핵폐기를	-11.0098
▁벙	-11.0098
▁터지면	-11.0101
▁모르네	-11.0105
있던	-11.0106
▁해피벌룬은	-11.0107
▁비롯	-11.0111
져도	-11.0112
▁급한	-11.0114
근무	-11.0114
▁감추	-11.0117
▁기획	-11.0118
했네요	-11.0119
▁깨져	-11.012
▁벌어서	-11.0122
닫	-11.0122
덩이	-11.0124
것으로	-11.0127
▁유리한	-11.0128
▁안위	-11.0129
▁애미	-11.0131
▁봉사	-11.0131
▁좋네	-11.0132
▁귀찮	-11.0133
R	-11.0133
델	-11.0133
▁무릎	-11.0133
뷰	-11.0133
셧	-11.0133
▁태어날	-11.0133
폴	-11.0133
▁평범한	-11.0133
▁급물살	-11.0133
▁나몰라라	-11.0133
▁희대의	-11.0133
▁여지껏	-11.0134
▁참수작전	-11.0134
▁한미동맹	-11.0134
보따리	-11.0134
▁닭그네	-11.0134
▁소득주도	-11.0134
▁실컷	-11.0134
▁착취	-11.0135
▁지능순	-11.0135
▁명심	-11.0136
▁활용	-11.0137
▁엄벌	-11.0137
▁좌표	-11.0138
▁자본	-11.0138
▁명예	-11.0138
▁기껏	-11.0139
생겼	-11.0139
▁이용해	-11.0139
▁국토	-11.014
▁추카	-11.014
▁좋겠습니다	-11.014
▁박탈	-11.014
▁꼴갑	-11.0141
▁되어서	-11.0141
▁안타깝네요	-11.0142
▁새삼	-11.0143
▁국가안보	-11.0143
치며	-11.0143
▁지킬	-11.0145
in	-11.0146
할수록	-11.0147
▁실천	-11.0147
▁사이비	-11.0147
▁편안	-11.0148
▁패배	-11.0149
▁위하여	-11.015
▁무역	-11.015
▁보는데	-11.0151
▁산모	-11.0151
▁정책에	-11.0151
▁몸통	-11.0152
자살	-11.0153
▁동맹국	-11.0153
▁당근	-11.0153
▁취업난	-11.0153
인구가	-11.0155
윤	-11.0156
쌀	-11.0157
불쌍	-11.0159
▁좋겠네요	-11.0159
▁물러서	-11.016
속으로	-11.0161
덩	-11.0162
거짓말	-11.0164
▁쪽바리들	-11.0166
▁신호	-11.0167
▁자손	-11.0167
▁무리들	-11.0169
웃음	-11.017
▁문죄	-11.017
나무	-11.0174
잖냐	-11.0174
▁나오는데	-11.0176
▁않겠지	-11.0176
▁분신	-11.0177
▁아니겠지	-11.0179
▁대통령이라고	-11.0181
티비	-11.0181
립시다	-11.0182
▁싸이코	-11.0182
게끔	-11.0183
할거라고	-11.0183
▁미친짓	-11.0183
▁형제	-11.0183
▁우방	-11.0184
▁똑같네	-11.0184
▁있었지	-11.0185
▁천재	-11.0192
52	-11.0194
▁이런기사	-11.0195
▁없애는	-11.0195
▁힘들다고	-11.02
▁발사	-11.0201
▁애둘	-11.0204
작업	-11.0204
표정	-11.0204
▁k	-11.0205
▁하는건지	-11.0206
▁충분	-11.0208
▁놓으면	-11.0209
▁생각해라	-11.0211
▁조사해라	-11.0213
▁상황인데	-11.0214
▁일자리도	-11.0216
▁죽기	-11.0216
▁잘가라	-11.0218
▁부부가	-11.0219
냈다	-11.0219
▁최악이다	-11.022
해봤자	-11.0221
▁먹으려	-11.0221
▁욕심이	-11.0222
▁출산률은	-11.0223
▁시전	-11.0224
▁비핵화의지	-11.0225
하겠어	-11.0226
▁멋지다	-11.0231
▁심정	-11.0232
▁빠졌	-11.0232
▁보유하고	-11.0233
축하	-11.0234
▁하는거다	-11.0236
▁행보	-11.0237
있어서	-11.0239
듯하다	-11.024
한태	-11.0242
▁개원	-11.0244
▁유사	-11.0245
▁퍼다	-11.0248
▁가는데	-11.025
▁걸린거	-11.0252
▁아침	-11.0254
할때까지	-11.026
▁막장	-11.0262
었지만	-11.0262
▁미련	-11.0263
쯧	-11.0265
모양	-11.0268
▁우와	-11.0269
많아	-11.027
백만원	-11.027
▁뭐만	-11.0278
▁들어가서	-11.0278
▁몰랐다고	-11.0278
▁두개	-11.0279
였다면	-11.0284
같은소리	-11.0284
한명	-11.0285
▁파는	-11.0286
▁할일이	-11.0287
▁국내에서	-11.0288
▁애들도	-11.0288
▁당한거	-11.029
▁방법을	-11.0291
▁시작해서	-11.0292
▁가져가	-11.0295
▁할게	-11.0295
▁엉	-11.0297
▁시작되	-11.0297
▁17	-11.0299
▁주사파들	-11.0301
불가	-11.0301
다보니	-11.0303
하는건가	-11.0304
▁동생	-11.0305
힌다	-11.0307
▁삭제	-11.0308
▁집단들	-11.0309
냄	-11.031
▁양심이	-11.031
▁있네요	-11.0313
생각을	-11.0313
▁잡아다	-11.0315
거리면서	-11.0316
문제를	-11.0316
▁꺼지	-11.0316
▁것에	-11.0317
▁말했다	-11.0319
까지는	-11.032
▁해체하고	-11.0323
잇는	-11.0323
▁사전에	-11.0326
▁부끄럽	-11.0327
한건지	-11.0327
▁구라치	-11.0328
▁ᅩ	-11.0329
하기는	-11.0329
▁얼마전	-11.0329
는거고	-11.0334
▁하자는	-11.0334
니들이	-11.0335
위주	-11.0335
!!!!!!!!!	-11.0336
차원	-11.0336
▁반일	-11.0336
문재인은	-11.0337
▁지랄들	-11.0338
▁낳게	-11.0338
▁콩	-11.0338
▁생각할	-11.0341
▁벌이	-11.0344
▁한발	-11.0344
해서는	-11.0344
▁이것들은	-11.0344
▁대통령이란	-11.0345
라는데	-11.0351
▁라면	-11.0354
▁어쩌다	-11.0356
▁할인	-11.0361
상대	-11.0363
개돼지들	-11.0364
▁시점에	-11.0365
▁지경	-11.0366
아이가	-11.037
▁허리	-11.0372
춰	-11.0374
께요	-11.0375
▁떳떳	-11.0376
▁운운하는	-11.0377
큐	-11.038
▁맞게	-11.0382
딘	-11.0383
뎅	-11.0383
뜰	-11.0383
쪄	-11.0383
▁어리둥절	-11.0383
▁허수아비	-11.0383
▁뜬구름	-11.0383
▁폼페이오	-11.0383
▁전형적인	-11.0383
▁김무성	-11.0383
▁만천하	-11.0384
▁균형	-11.0384
▁할줄아는게	-11.0384
▁일어날	-11.0384
▁핵인질	-11.0384
▁도람뿌	-11.0384
▁배불리	-11.0385
(?)	-11.0385
▁으휴	-11.0385
▁가까이	-11.0385
▁마땅	-11.0385
▁고마워	-11.0386
▁일주일	-11.0386
▁이기사	-11.0387
▁계약	-11.0387
▁점령	-11.0387
▁감빵	-11.0387
▁장소	-11.0387
지맙시다	-11.0387
▁생각보다	-11.0387
▁본능	-11.0388
▁ᅳᅳᅳ	-11.0388
▁명령	-11.0388
▁연락	-11.0388
▁서양	-11.0388
▁교육기관	-11.0389
▁6000	-11.0389
▁엄청나게	-11.0389
▁개한민국	-11.039
슬쩍	-11.0391
▁공기업	-11.0394
▁청년실업	-11.0394
더군요	-11.0395
▁일제시대	-11.0397
넘어가	-11.0398
▁남침	-11.0398
▁똥싸	-11.0398
▁같아서	-11.0398
▁거시기	-11.0399
붕	-11.0399
▁변하지	-11.0401
▁트럼프야	-11.0401
▁봐야지	-11.0402
혀서	-11.0402
▁너희들이	-11.0403
▁진동	-11.0406
팔고	-11.0406
증가	-11.0407
▁찌질	-11.0409
늦	-11.0409
▁뜻이	-11.0409
▁줬다	-11.0409
▁확보	-11.0411
▁저러고	-11.0411
떨어져	-11.0411
▁지금쯤	-11.0412
▁추방	-11.0413
▁사죄	-11.0413
훈련	-11.0416
▁도박	-11.0416
▁멸	-11.0416
▁지키고	-11.0417
개소리	-11.0418
///	-11.0419
독립	-11.0419
▁동원	-11.0419
시요	-11.042
어떤	-11.0421
때문이다	-11.0421
▁뭐했냐	-11.0421
▁쪽빠리	-11.0421
▁회의	-11.0422
할까봐	-11.0424
뿐인데	-11.0425
▁관련된	-11.0427
▁진전이	-11.0428
▁택시는	-11.0428
▁이룩	-11.0428
▁쉽지않	-11.0428
▁죽겠다	-11.0429
입장에서는	-11.0429
▁모르면서	-11.043
▁공개해라	-11.0431
되도	-11.0431
▁나름	-11.0431
▁두배	-11.0431
▁모아서	-11.0433
했더니	-11.0434
후손	-11.0434
▁인천	-11.0434
▁버려	-11.044
▁기사만	-11.0444
▁돈이나	-11.0445
▁존중	-11.0445
▁전국민이	-11.0445
▁국익에	-11.0446
▁교육부장관	-11.0447
▁있겠네	-11.0448
▁번인	-11.0448
대응	-11.0451
▁신나게	-11.0454
▁싸워야	-11.0455
▁있을지	-11.0456
▁문빨	-11.0456
으신	-11.046
▁읽고	-11.0461
▁현장	-11.0461
▁북한비핵화	-11.0462
▁걸린거지	-11.0464
▁청소년	-11.0466
▁우울증	-11.0468
▁난리치	-11.0469
치매	-11.047
▁가짜평화	-11.0471
값이	-11.0471
▁저축	-11.0473
정권의	-11.0474
▁원숭이	-11.0474
터진	-11.0476
▁이니는	-11.0478
▁득	-11.0478
▁확실	-11.0479
같아	-11.048
규제	-11.048
▁골라	-11.0482
▁무능하다	-11.0485
▁안해주	-11.0486
▁우리나라의	-11.0486
하듯이	-11.0486
국가에서	-11.0491
▁지디	-11.0492
▁알아야지	-11.0496
▁가시	-11.0497
▁이익만	-11.05
▁먹히	-11.05
▁북한핵	-11.0501
▁줘야지	-11.0504
▁등장	-11.0504
▁이걸로	-11.0505
하고있는	-11.0506
▁유명	-11.0506
망신	-11.0507
뽑아	-11.0507
한심한	-11.0509
▁넘어서	-11.051
년뒤	-11.0511
보면서	-11.0511
▁아베와	-11.0511
거부	-11.0513
▁져야	-11.0515
▁가족이	-11.0516
▁지지율이	-11.0517
00	-11.0517
▁결단을	-11.052
▁핵시설에	-11.052
▁않았나	-11.0522
▁낳는데	-11.0523
▁살아갈	-11.0524
▁전원	-11.0526
▁있었을까	-11.0529
▁문죄앙이	-11.0533
질을	-11.0533
▁외쳐	-11.0534
▁자들이	-11.0534
인거고	-11.0535
하느니	-11.0536
▁있었다는	-11.0537
란말	-11.0542
▁남이	-11.0543
▁나쁜놈	-11.0544
▁우리나라만	-11.0544
불안	-11.0546
▁보나	-11.0547
▁안들어	-11.0548
▁보냈	-11.0551
▁긴	-11.0551
▁가져다	-11.0555
▁면허	-11.0559
▁전제	-11.056
▁싶을	-11.0561
▁애만	-11.0561
▁있을때	-11.0561
▁증거가	-11.0562
▁내려야	-11.0563
더럽	-11.0572
▁하는거야	-11.0575
서로	-11.0576
▁간단	-11.0577
▁누구냐	-11.0579
▁이란	-11.058
▁조작질	-11.0585
▁떨어지면	-11.0587
▁집어	-11.0587
앉혀	-11.0587
주는데	-11.0587
▁인재	-11.0588
읍니다	-11.0589
▁우리나라를	-11.0593
▁징징	-11.0595
▁자영업자들	-11.0601
▁출산시	-11.0602
▁다름없	-11.0602
▁낳는다고	-11.0604
▁꼴보기	-11.0607
▁나쁘다	-11.0614
▁좌파정부	-11.0615
▁손을	-11.0621
▁북한편	-11.0622
교육비	-11.0623
▁대세	-11.0624
▁브	-11.0624
켰	-11.0626
▁d	-11.063
▁차렸	-11.063
▁바뀌지	-11.0631
▁핵과	-11.0632
▁피해보	-11.0633
▁바쁜	-11.0634
뒈	-11.0634
▁왠지	-11.0635
▁정부탓	-11.0638
▁잘못을	-11.0639
곱	-11.0639
▁다음은	-11.0639
ᅥ	-11.064
🏻	-11.064
▁겉으로	-11.064
▁국무총리	-11.064
▁까도까도	-11.064
▁산부인과	-11.064
▁숟가락	-11.064
▁싱가폴	-11.064
▁호텔	-11.064
덴	-11.064
샌	-11.064
샘	-11.064
어쨌든	-11.064
▁어떨까	-11.064
스러워	-11.064
▁강력대처	-11.064
▁와이프	-11.064
▁초등학생	-11.064
▁귀걸이	-11.064
▁모자란	-11.064
▁닭근혜	-11.0641
▁숨겨논	-11.0641
▁닭대가리	-11.0642
▁625	-11.0642
▁작품	-11.0643
▁박멸	-11.0643
▁섹스	-11.0643
▁담배피	-11.0644
▁찍힌	-11.0645
박사	-11.0645
▁웃으면서	-11.0645
▁영토	-11.0645
▁국회의원들	-11.0646
▁은근	-11.0647
▁새누리당	-11.0649
해보면	-11.0649
▁우덜	-11.0651
▁들린다	-11.0652
▁만나야	-11.0652
성공	-11.0652
▁갈때	-11.0654
▁도라이	-11.0655
▁쪼개	-11.0655
▁한푼	-11.0657
▁찌르	-11.0658
갈때	-11.0658
▁늬들	-11.0658
▁당당하게	-11.0659
▁우릴	-11.0659
때려	-11.0659
▁나온거	-11.0661
▁이슬람	-11.0662
▁뻔하	-11.0662
▁왜이렇게	-11.0662
▁봅시다	-11.0662
▁씨를	-11.0666
▁정신차리자	-11.0668
▁국민성	-11.0668
▁살길이다	-11.0668
까지도	-11.0668
▁기분이	-11.0668
▁전락	-11.0668
▁묵인	-11.0669
▁설쳐대	-11.0669
▁조직	-11.067
탐	-11.0672
▁반토막	-11.0673
았냐	-11.0674
밖으로	-11.0674
샤	-11.0675
싼	-11.0676
쫌	-11.0677
▁결혼하는	-11.0678
있었다	-11.0679
바뀌	-11.0679
▁맞나	-11.0679
▁망명	-11.068
▁지원이	-11.0681
▁깨졌	-11.0682
▁적정	-11.0682
▁이끌	-11.0682
쪽바리	-11.0683
▁재인	-11.0684
젊은	-11.0685
지지율	-11.0685
▁답방	-11.0686
▁이야	-11.0687
망언	-11.0687
▁참고로	-11.0689
▁꽝	-11.0691
▁끝났네	-11.0691
▁당신들이	-11.0692
▁성공한	-11.0693
차원에서	-11.0696
먹어서	-11.07
▁백성들	-11.0706
▁한패	-11.0707
▁식민지	-11.0709
▁없겠지	-11.0709
▁악수	-11.071
▁법안	-11.0712
▁것과	-11.0712
▁돌리고	-11.0714
꺼면	-11.0718
▁없는것	-11.072
▁지금부터	-11.072
▁비서실장	-11.0721
▁보수의	-11.0725
살고	-11.0727
▁0.0	-11.0728
▁제외	-11.0728
),	-11.0729
▁둘째는	-11.0729
▁비싸서	-11.0735
▁비핵화와	-11.0735
산업	-11.0738
안됨	-11.0739
▁안통하	-11.0741
보호	-11.0741
▁폭로	-11.0743
을위해	-11.0744
▁열일	-11.0747
▁갑니다	-11.0748
▁결렬될	-11.0748
▁얘기를	-11.0752
▁섬	-11.0752
싶은데	-11.0755
▁애새끼	-11.0758
▁저절	-11.0759
전엔	-11.0761
▁가는게	-11.0761
▁둘중	-11.0762
직원	-11.0762
하는것들	-11.0763
▁저러는	-11.0764
▁재인이는	-11.0765
▁인정해	-11.0769
국가로	-11.077
▁속보	-11.0775
▁사살	-11.0776
누리	-11.0777
▁바위	-11.0779
손에	-11.0783
▁아니라면	-11.0784
긋네	-11.0784
▁저출산을	-11.0787
▁되겠다	-11.0788
▁듣지	-11.0789
인거냐	-11.0792
▁싶은거	-11.0795
▁혼란	-11.0798
▁유도	-11.0798
▁빌어	-11.0798
▁질이	-11.0798
▁떼쓰	-11.0798
▁살겠다	-11.0798
▁추가로	-11.0799
▁쥐어	-11.0799
정책으로	-11.08
▁죽어야	-11.0801
▁국내문제	-11.0801
야됨	-11.0802
▁쪼다	-11.0805
▁그것만	-11.0805
▁기대를	-11.0806
주인	-11.0806
▁살릴	-11.0806
똑같	-11.0807
▁자유대한민국을	-11.0808
달창들	-11.0809
▁버릴	-11.0811
▁시간문제	-11.0811
좌파들	-11.0812
바지	-11.0815
▁기사들	-11.0817
▁황교안님	-11.0817
제를	-11.0819
▁운전을	-11.0819
세상에	-11.0823
해지는	-11.0824
자본	-11.0825
▁애쓰	-11.0828
▁비공	-11.0829
따위가	-11.0831
▁차릴	-11.0834
쌔	-11.0834
▁그다음	-11.0835
떨고	-11.0837
대북	-11.0837
찾아	-11.084
▁이말	-11.0841
멍충이	-11.0845
▁깝	-11.0846
▁수업	-11.0847
▁시기에	-11.0848
▁끈	-11.0853
▁만나지	-11.0854
▁만들기	-11.0858
▁바다	-11.086
가봐	-11.086
▁심해지	-11.0864
위원장	-11.0869
받는게	-11.0869
▁끌어내려	-11.0871
야되는데	-11.0872
▁대통령이다	-11.0873
▁가난한	-11.0875
꼬라지	-11.0875
▁얼굴에	-11.0876
;;;;	-11.0876
정의	-11.0877
▁힘쓰	-11.0879
야죠	-11.0884
▁o	-11.0885
안돼	-11.0889
람프	-11.0891
긍	-11.0892
하시면	-11.0893
게아니라	-11.0895
▁않는한	-11.0895
줄려고	-11.0897
▁아기가	-11.09
랍니다	-11.09
▁의지도	-11.09
▁경기도	-11.0901
띄	-11.0902
U	-11.0903
퍽	-11.0903
ᅦ	-11.0903
❌	-11.0903
💙	-11.0903
▁시궁창	-11.0903
▁아쉬운	-11.0903
▁코메디	-11.0903
😂	-11.0903
▁간절히	-11.0903
▁지극히	-11.0903
▁연평도	-11.0903
▁으이그	-11.0903
▁똘똘	-11.0903
▁양질의	-11.0903
▁드럽게	-11.0903
▁한걸음	-11.0903
▁발뺌	-11.0903
▁감성팔이	-11.0904
▁방구석	-11.0904
▁개돼지들이	-11.0904
▁압승	-11.0904
▁독립운동	-11.0904
▁ᄋᄌᄅ	-11.0904
▁명품백	-11.0904
▁말도안되는	-11.0905
▁소문난	-11.0905
▁헛짓거리	-11.0905
▁숨겨두고	-11.0906
▁나쁨	-11.0906
▁짜고치는	-11.0906
편이	-11.0906
든말든	-11.0906
▁학생	-11.0907
▁경제파탄	-11.0907
▁아쉽지만	-11.0908
▁너같으면	-11.0908
▁상당히	-11.0908
▁은폐	-11.0909
할수도	-11.0909
▁문재인이는	-11.0909
▁예언	-11.0909
▁냉정하게	-11.0909
벙	-11.0909
▁극복	-11.0909
행사	-11.091
▁가임기	-11.0911
▁악플다는	-11.0911
▁사퇴	-11.0911
▁밀어붙	-11.0913
▁전쟁광	-11.0914
▁주접	-11.0914
▁주둔	-11.0914
▁작작해라	-11.0914
문재인이	-11.0914
석이	-11.0915
▁알리	-11.0915
▁편입	-11.0917
▁있더라	-11.0917
▁사고가	-11.0917
▁훅	-11.0918
▁실질적으로	-11.0919
▁무엇보다	-11.0919
▁웃겠다	-11.092
▁어떡하냐	-11.092
▁장사하는	-11.0921
카페	-11.0921
▁이쁘	-11.0922
▁지럴	-11.0923
▁개구리	-11.0923
▁준비나	-11.0924
▁의식주	-11.0924
▁속에	-11.0924
▁만만하게	-11.0925
▁퍼줘서	-11.0926
▁패미	-11.0927
▁완벽한	-11.0929
▁주위에	-11.093
▁입을	-11.0931
▁국내정치	-11.0931
신고	-11.0932
한사람	-11.0932
▁아기들	-11.0933
▁그걸로	-11.0934
▁살인은	-11.0934
할생각	-11.0935
▁웃긴게	-11.0936
개돼지	-11.0938
▁세모	-11.0939
▁대로	-11.094
▁고스	-11.094
시지	-11.0942
칼	-11.0945
▁실질적인	-11.0945
엘	-11.0946
자에게	-11.0946
▁ceza	-11.0949
콩	-11.095
색희	-11.0952
▁공기청정기	-11.0953
▁세대가	-11.0954
▁놀랐다	-11.0956
하지마세요	-11.0957
탈출	-11.0957
▁시작한	-11.0958
▁받으려	-11.096
홍어	-11.096
▁바꾸고	-11.096
▁맞다고	-11.0961
있단다	-11.0961
▁영향을	-11.0961
제거	-11.0963
셔요	-11.0964
줄께	-11.0965
▁허구	-11.0965
지르	-11.0965
▁집은	-11.0966
많네	-11.0967
타결	-11.0968
어벙	-11.0968
▁강아지	-11.0969
▁때문이지	-11.097
▁에구	-11.0972
간의	-11.0972
되기를	-11.0972
▁싸우겠다	-11.0973
▁세계적으로	-11.0975
▁만들려고	-11.0975
▁흔들리	-11.0977
▁문제에	-11.0978
▁아베랑	-11.0979
▁찔끔	-11.098
▁없애면	-11.0981
▁여건	-11.0981
▁그릇	-11.0982
▁해산	-11.0982
▁있는걸	-11.0982
내에	-11.0985
박살	-11.0988
▁싸우는	-11.099
▁앞날이	-11.1001
알면서	-11.1003
▁영리	-11.1003
▁북미간	-11.1004
와중에	-11.1005
▁밝혀야	-11.1006
일때	-11.1006
▁결혼율	-11.1011
▁통과	-11.1013
부를	-11.1013
▁남는	-11.1015
▁틀린	-11.1017
▁세계에	-11.1017
▁쌈	-11.1019
▁바라고	-11.1019
▁기만한	-11.1023
대갈	-11.1023
넣어	-11.1024
id	-11.1026
이아니라	-11.1028
▁모르게	-11.1028
국민은	-11.1032
거니까	-11.1032
▁불임	-11.1033
▁멋지	-11.1034
▁낳겠다	-11.1036
였을	-11.1038
▁오면	-11.1041
▁법원	-11.1041
보겠다	-11.1041
▁아이들에게	-11.1043
▁놈을	-11.1043
▁ᄎ	-11.1044
▁됐고	-11.1045
▁그룹	-11.1045
버린다	-11.1046
▁그랬다	-11.1047
▁즐	-11.1047
노조	-11.1049
하려나	-11.1051
▁됐다고	-11.1052
▁놀란	-11.1053
▁헌	-11.1059
▁좌빨들이	-11.1059
러지	-11.106
수술	-11.1065
▁망치	-11.1066
~!!!!	-11.1067
에다가	-11.107
▁쎄	-11.1071
▁여유가	-11.1072
▁쩝쩝거리	-11.1072
▁하여	-11.1072
▁민족이	-11.1073
▁바보냐	-11.1075
▁사진찍	-11.1075
▁앉아	-11.1075
▁인간들아	-11.1089
상황이	-11.1091
▁사기쇼	-11.1093
해야하는데	-11.1094
▁폐기하면	-11.1095
▁소비자가	-11.1098
▁리스트	-11.11
▁사람들의	-11.1101
▁문제임	-11.1106
▁개정은이가	-11.1106
▁페미가	-11.1107
▁고립	-11.1107
▁오빠	-11.111
▁찍고	-11.112
된다는	-11.1121
▁남아있	-11.1122
업자	-11.1124
율이	-11.1125
▁볼수	-11.1128
▁돌아다니	-11.1131
▁당해	-11.1133
조직	-11.1134
▁정은이도	-11.1136
▁아들이	-11.1137
버렸다	-11.1138
꼭	-11.1143
▁형량	-11.1149
이요	-11.115
▁당선을	-11.1152
▁개인이	-11.1154
▁감춰	-11.1156
학년	-11.1157
▁솔직	-11.1158
▁나아지	-11.116
▁지키는	-11.1161
▁텐데	-11.1161
기회	-11.1161
▁않지	-11.1162
▁국적	-11.1166
하시지	-11.1168
▁주는데	-11.1169
역적	-11.117
▁세대들	-11.117
▁트럼	-11.117
ᄉᄁ들	-11.1171
톱	-11.1171
찐	-11.1171
숫	-11.1172
▁쥐꼬리	-11.1173
텅	-11.1173
▁꼭두각시	-11.1173
▁없앨	-11.1173
껌	-11.1173
닉	-11.1173
닝	-11.1173
▁멈추	-11.1173
▁고모부	-11.1173
▁매크로	-11.1173
▁훼방	-11.1173
▁집한채	-11.1173
▁개거품	-11.1173
▁사악한	-11.1173
▁목숨걸고	-11.1173
▁춤추	-11.1173
▁글로벌	-11.1173
▁저새끼	-11.1174
▁임종석	-11.1174
▁주댕이	-11.1176
▁꼴깝	-11.1176
위원회	-11.1176
▁ᄋᄌ	-11.1176
▁늘어난다	-11.1176
▁재정	-11.1177
▁쓸모없는	-11.1177
▁손해보는	-11.1177
애가	-11.1177
▁가치관	-11.1177
▁오늘밤	-11.1177
▁경제성장	-11.1178
▁창출	-11.1178
▁배짱	-11.1178
▁채용	-11.1179
▁유착	-11.118
▁개인주의	-11.1181
▁싶습니다	-11.1182
먹을려고	-11.1183
회장	-11.1184
▁동족	-11.1184
▁보여주기식	-11.1184
▁개박살	-11.1185
▁학살	-11.1185
▁백번	-11.1186
▁또람프	-11.1186
▁걸림	-11.1187
▁여태까지	-11.1188
▁떨더니	-11.1189
상식	-11.119
▁장난하냐	-11.119
치면서	-11.1191
▁놀러	-11.1191
▁어머니	-11.1192
▁좋은결과	-11.1192
▁국산	-11.1193
▁백배	-11.1194
▁일하고	-11.1196
인다	-11.1197
년아	-11.1198
▁대립	-11.1199
▁탄핵감이다	-11.1201
▁살만한	-11.1201
▁허구헌날	-11.1202
▁차고	-11.1204
▁기업이	-11.1204
▁먹으면	-11.1205
▁소유	-11.1207
▁맘이	-11.1208
▁소득주도성장	-11.1208
▁반성해라	-11.1208
▁생각에	-11.1208
▁고위	-11.1209
전체	-11.121
▁입장을	-11.1211
▁늘어날	-11.1212
▁하겠나	-11.1213
▁핵시설은	-11.1213
▁수준으로	-11.1214
▁0.1	-11.1214
▁죽었	-11.1214
▁w	-11.1217
세퀴	-11.1217
됫	-11.1218
▁웃을	-11.1218
▁당대표로	-11.1219
냉	-11.122
바꿔	-11.122
쌓	-11.122
정상회담	-11.1222
▁열면	-11.1223
즐	-11.1223
▁먼가	-11.1224
▁법적으로	-11.1224
ᄊ	-11.1225
▁군부	-11.1225
년이면	-11.1225
걍	-11.1225
헐	-11.1226
6700	-11.1227
yg	-11.1228
▁똥인지	-11.1229
▁이러면서	-11.1229
친일파	-11.123
▁특정	-11.123
▁물리	-11.1232
새키들	-11.1233
▁엄정대응	-11.1234
▁지나가던	-11.1234
▁주요	-11.1235
▁웃는다	-11.1237
특히	-11.1239
▁미세먼지때문에	-11.1239
▁해처먹	-11.124
▁살려고	-11.124
마련	-11.1241
▁하던지	-11.1241
▁그돈을	-11.1242
▁거절	-11.1242
청산	-11.1242
돌려	-11.1243
▁살어	-11.1245
▁부끄럽다	-11.1246
낳지	-11.1246
됐는데	-11.1246
▁도둑질	-11.1247
랑께	-11.1248
폐지	-11.1249
장으로	-11.1251
▁가사	-11.1251
조절	-11.1252
라우	-11.1254
독재자	-11.1256
▁보는거	-11.1257
▁줄여야	-11.1258
▁일본에서	-11.1258
ᆞᆞ	-11.126
▁부끄러운	-11.126
▁다행이네	-11.1261
▁가는구나	-11.1261
▁북한문제	-11.1262
▁시민들	-11.1262
인사	-11.1262
▁예견된	-11.1262
▁원조	-11.1263
김에	-11.1263
▁쓰레기같은	-11.1264
연한	-11.1264
▁불러서	-11.1265
▁문제냐	-11.1265
▁읍	-11.1268
▁언론에	-11.1271
년생	-11.1272
▁좌빨들은	-11.1277
▁가세요	-11.1278
▁있는한	-11.1279
▁구석	-11.1281
▁낳고싶어	-11.1284
▁포기한다고	-11.1285
▁한국여자들	-11.1285
하곤	-11.1285
▁못난	-11.1289
▁난리를	-11.129
▁이틀	-11.1291
잡을	-11.1295
진게	-11.1297
▁반발	-11.1299
▁해줘라	-11.13
▁끊어	-11.1303
▁기적	-11.1303
▁한편	-11.1305
었겠지	-11.1305
▁자신들	-11.1306
▁진실이	-11.1307
둘이	-11.1308
▁수구꼴통	-11.1311
▁계속해서	-11.1311
봤어	-11.1313
▁핵포기를	-11.1314
▁없을듯	-11.1314
▁나무	-11.1315
▁전문가들	-11.1318
▁주어	-11.1321
▁하아	-11.1322
봤네	-11.1325
▁검찰이	-11.1326
▁발정	-11.1328
▁세금내	-11.1328
▁존나게	-11.1328
▁2~3	-11.1329
▁피해를	-11.133
▁세력들	-11.1332
▁버린	-11.1333
▁딸년	-11.1333
▁만들었다	-11.1336
인물	-11.134
▁속내	-11.1341
▁슬	-11.1342
▁그치	-11.1342
▁싶네요	-11.1343
▁되겠지	-11.1346
하는거보면	-11.1347
백만	-11.1347
▁낳을수	-11.1348
▁거지같은	-11.135
자랑	-11.135
졌다고	-11.1354
▁말좀	-11.1355
목적	-11.1356
▁되는거지	-11.1363
▁한유총과	-11.1367
할건	-11.1368
공격	-11.137
아니야	-11.1373
▁불신	-11.1375
▁묻고	-11.1375
▁상태에서	-11.1375
이라는걸	-11.1375
▁우리이니	-11.1377
문씨	-11.1377
내역	-11.1383
끝나	-11.1383
종자들	-11.1383
▁화나	-11.1384
이었던	-11.1385
▁이민을	-11.1388
하마	-11.1388
▁되도	-11.139
▁나가면	-11.139
▁만들겠다	-11.139
영업	-11.139
▁쉰	-11.1391
주는거	-11.1392
될때까지	-11.1396
나옴	-11.1398
▁종자	-11.1399
▁하시는	-11.1401
중요	-11.1402
▁열리	-11.1402
▁이어지	-11.1403
▁설치는	-11.1405
▁조장하는	-11.1406
한다는게	-11.1408
좋겠다	-11.141
▁정신병자들	-11.141
▁아껴	-11.141
▁애써	-11.1412
▁샤	-11.1413
알지	-11.1413
획	-11.1413
줘야지	-11.1415
▁문제라	-11.1416
▁신의	-11.1418
▁쓰는거	-11.142
제공	-11.142
틀딱들	-11.1421
▁돌았	-11.1422
▁물려	-11.1422
줄테니	-11.1422
분들이	-11.1423
개판	-11.1424
▁댓글보니	-11.1425
▁맞는말	-11.1426
▁느그들	-11.1426
▁누군	-11.1432
▁퍼주기만	-11.1432
믿는	-11.1434
▁상당	-11.1436
땅에	-11.1436
▁청년들이	-11.1439
▁못하냐	-11.144
받아라	-11.1442
▁왕조	-11.1446
▁빼앗	-11.1448
땀	-11.1448
띵	-11.1449
쯔	-11.1449
씬	-11.1451
▁https	-11.1451
▁발암물질	-11.1451
▁역겨운	-11.1451
▁정신못차리	-11.1451
▁카카오	-11.1451
삿	-11.1451
얌	-11.1451
▁초토화	-11.1451
▁최저시급	-11.1451
▁기성세대	-11.1451
▁나랏일	-11.1451
▁빌미로	-11.1451
▁떠넘기	-11.1451
▁까발려	-11.1451
감사	-11.1451
▁방콕	-11.1451
▁어울리	-11.1451
▁한미공조	-11.1451
▁챙피	-11.1451
@@	-11.1451
▁워낙	-11.1451
▁ᄆᄎ	-11.1452
▁덜떨어진	-11.1452
▁자유망국당	-11.1452
▁원흉	-11.1453
▁사업자	-11.1453
▁냉정	-11.1453
▁우짜노	-11.1454
▁일어난	-11.1455
됐다고	-11.1455
▁젊은층	-11.1456
▁무효	-11.1457
▁침몰	-11.1457
▁치킨집	-11.1458
▁말이되냐	-11.1458
▁무엇인지	-11.1458
▁결렬됐다고	-11.1459
▁소련	-11.1459
▁백퍼	-11.1461
▁어린애	-11.1461
▁국격	-11.1461
▁땅덩어리에	-11.1461
있을까	-11.1461
▁심각하게	-11.1463
▁놀이	-11.1463
▁위태	-11.1464
▁느그이니	-11.1467
▁축소	-11.1467
▁끌고가	-11.1467
▁못하겠	-11.1469
▁말고는	-11.1469
▁지원해줘	-11.1472
▁개똥	-11.1472
질것	-11.1472
나본데	-11.1473
▁신청	-11.1473
▁급급	-11.1474
▁형편	-11.1474
▁없애버리	-11.1475
잔당	-11.1476
▁대량	-11.1476
▁났네	-11.1476
▁성실	-11.1477
지경	-11.1478
▁몰랏	-11.1478
▁유행	-11.1479
▁끔찍	-11.148
읍	-11.148
▁속이려다	-11.1482
좌빨들	-11.1484
▁가지가지한다	-11.1486
▁비호	-11.1488
지않아	-11.1488
도우미	-11.1488
▁양군	-11.1489
▁안보는	-11.1489
셨네	-11.1492
▁봤냐	-11.1492
▁다른곳	-11.1492
▁줄줄	-11.1493
▁내릴	-11.1494
▁방치	-11.1494
있는게	-11.1494
▁낳음	-11.1496
▁않았는데	-11.1496
▁구린게	-11.1499
▁사라져	-11.1499
발이	-11.1501
▁차리자	-11.1502
▁고개	-11.1502
▁자위당	-11.1503
▁주위	-11.1504
▁부산	-11.1506
▁드러났다	-11.1507
▁사회의	-11.1508
▁노리	-11.1511
더불어	-11.1511
화이팅	-11.1511
▁역활이	-11.1512
공산주의	-11.1512
북괴	-11.1513
▁될줄	-11.1514
ᄉᄇ	-11.1514
▁머지	-11.1514
노무현	-11.1515
▁집안일	-11.1515
▁협상가	-11.1516
▁한표	-11.1517
맘대로	-11.152
▁참석	-11.152
▁얻으려	-11.1521
폭등	-11.1522
▁아따	-11.1523
달리	-11.1523
▁말에	-11.1524
▁자리가	-11.1525
▁속아서	-11.1526
▁댓글은	-11.1526
▁힘들어요	-11.1526
▁다른건	-11.1526
경기	-11.1526
하기를	-11.1528
됐어	-11.1528
▁모르니	-11.153
▁가는거	-11.1533
▁이놈들	-11.1534
▁관심없고	-11.1535
▁일인데	-11.1536
▁기대하는	-11.1537
▁제안	-11.1539
▁기세	-11.1541
▁우짜	-11.1541
▁피자	-11.1542
▁대통령에게	-11.1545
권을	-11.1546
포함	-11.1549
▁썻	-11.1552
▁평화니	-11.1553
선에서	-11.1554
▁애낳기	-11.1554
▁확인한	-11.1555
▁최강	-11.1555
▁자리에서	-11.1558
▁가수	-11.1559
▁찬양하는	-11.156
▁수천	-11.1562
▁사기꾼들	-11.1562
▁가능할	-11.1564
문재앙이	-11.1565
▁대권	-11.1571
▁되지도	-11.1571
▁버렸	-11.1575
▁이라는	-11.1575
▁있는거다	-11.1576
먹으면서	-11.1576
어지간히	-11.1577
19	-11.1578
▁그외	-11.1578
▁다하고	-11.1578
▁결말	-11.1579
일수록	-11.158
▁몰수	-11.1584
될텐데	-11.1584
ᅳᅳᅳ	-11.1585
국가가	-11.1588
먹여	-11.159
조심	-11.1591
▁일본으로	-11.1591
할께	-11.1591
▁북괴에	-11.1593
▁살리고	-11.1594
그네	-11.1596
직장	-11.1596
▁어른들	-11.1597
▁약점	-11.1599
피해	-11.16
▁인정받	-11.1601
▁내렸	-11.1602
▁자국의	-11.1603
해졌	-11.1604
▁사치	-11.1605
al	-11.1606
▁지랄하고	-11.1609
천억	-11.1612
▁사람이다	-11.1613
개인	-11.1615
300	-11.1616
▁비핵화한다고	-11.1617
▁애기를	-11.1617
▁실업	-11.1619
▁뭐임	-11.1621
▁정상국가	-11.1621
▁정상회담이	-11.1622
었구나	-11.1624
▁동결	-11.1625
▁한수	-11.1625
▁싶고	-11.1629
새퀴	-11.1629
▁설쳐	-11.163
▁흘리	-11.1632
▁줄어들고	-11.1632
▁박근혜당	-11.1634
▁정말로	-11.1635
▁받으면서	-11.1636
▁상관없이	-11.1637
▁없다면	-11.1638
▁계신	-11.1641
▁속에서	-11.1641
무리	-11.1641
▁들킨	-11.1643
딩이	-11.1645
▁정체	-11.1648
▁덩	-11.1648
▁재앙을	-11.1648
국인	-11.165
는거죠	-11.165
▁억울	-11.165
▁가치가	-11.1652
▁시켰	-11.1652
▁감수	-11.1655
▁혈세로	-11.166
▁박수	-11.1661
▁하잖아	-11.1664
▁주지말고	-11.1666
▁국익	-11.1667
▁세월	-11.1668
▁말아먹은	-11.1668
▁북미협상	-11.167
▁있는거지	-11.1673
대지	-11.1673
기까지	-11.1673
낳아서	-11.1674
▁고수	-11.1676
거늘	-11.1677
▁장애	-11.1677
▁일방적	-11.1678
했어도	-11.1679
▁잡았	-11.1679
▁한개	-11.1679
▁푸하하	-11.1681
▁기다리는	-11.1682
은데	-11.1684
▁받게	-11.1689
할거면	-11.169
않았다	-11.1691
▁버리지	-11.1691
할일	-11.1693
▁대통령이라는	-11.1694
▁한나라	-11.1696
▁제명	-11.1705
▁아부	-11.1706
▁작살	-11.1706
▁만들어주	-11.1706
쪽팔	-11.1708
▁국민들만	-11.1708
▁저런게	-11.1713
▁제발좀	-11.1713
했던거	-11.1714
가구	-11.1717
▁봤다	-11.172
칸	-11.1725
굽	-11.1732
▁어린이	-11.1733
돋	-11.1736
컴	-11.1737
▁낙하산	-11.1737
▁묶어	-11.1737
▁직무유기	-11.1737
엥	-11.1737
▁oecd	-11.1737
▁김의겸	-11.1737
▁안갔다온	-11.1737
▁어쩐지	-11.1737
▁깜깜	-11.1737
▁횡령	-11.1737
퍼센트	-11.1737
▁위안부	-11.1737
▁조선일보	-11.1737
▁희망고문	-11.1737
▁독박육아	-11.1737
▁강력대응	-11.1737
▁수백조	-11.1737
▁양육수당	-11.1737
▁부정선거	-11.1737
▁그들만의	-11.1737
줍시다	-11.1738
▁딴따라	-11.1738
▁짜증난다	-11.1738
▁이리저리	-11.1738
▁파쇄작업	-11.1738
▁댓통령	-11.1738
▁개인재산	-11.1738
▁싸질러	-11.1738
▁다름	-11.1738
센터	-11.174
▁쓰레기들이	-11.174
▁복귀	-11.174
▁모른체	-11.174
▁똥구멍	-11.174
땜시	-11.1741
▁비공감	-11.1742
▁상납	-11.1742
싶네	-11.1743
▁언론들이	-11.1743
▁두군데	-11.1744
▁두번째	-11.1745
겠고	-11.1745
▁핵포기안한다	-11.1746
▁우물안	-11.1746
▁문등신	-11.1746
▁38	-11.1746
대세습	-11.1748
▁남은건	-11.175
▁낫겠다	-11.1752
▁치료	-11.1753
▁없어진다	-11.1754
▁채워	-11.1755
▁바칠	-11.1755
▁이분	-11.1755
▁좋은일	-11.1755
▁어이구	-11.1756
갔으면	-11.1759
갑다	-11.1759
▁애키우기	-11.1761
자산	-11.1761
▁나베	-11.1762
▁청원	-11.1762
▁예전부터	-11.1762
▁속았다	-11.1763
▁불법으로	-11.1764
▁주거비	-11.1766
▁시각	-11.1767
▁현실적인	-11.1768
▁퍼부	-11.177
▁만나는	-11.177
제제	-11.1772
▁좋음	-11.1772
▁중매	-11.1772
대회	-11.1772
▁아쉽네	-11.1772
▁교활아	-11.1774
▁한나라당	-11.1775
▁스타일	-11.1777
▁인제	-11.1778
▁정답이다	-11.1779
▁살피	-11.1779
▁아프리카	-11.178
할려	-11.178
▁끝난거	-11.1781
▁남편이	-11.1782
▁치면	-11.1782
▁모양이	-11.1783
▁말라는	-11.1783
~~!!!	-11.1783
▁최고다	-11.1785
▁벌어야	-11.1785
일수도	-11.1785
▁반박	-11.1786
▁잘살게	-11.1787
볼모로	-11.1789
▁쇠	-11.1789
▁정착	-11.1789
▁다루	-11.1792
▁운전자는	-11.1793
▁봤는데	-11.1794
폭탄	-11.1797
▁세계평화	-11.1798
▁사라진다	-11.1798
쉰	-11.1798
▁엎어	-11.18
년째	-11.1803
클럽	-11.1806
헛	-11.1806
꼬봉	-11.1807
▁나설	-11.1808
했었는데	-11.1808
▁보아	-11.1808
▁몰랐을	-11.1809
미터	-11.181
희망	-11.1813
▁신발	-11.1813
▁잘도	-11.1814
▁인구절벽	-11.1814
일어나	-11.1816
지않으면	-11.1816
▁김치녀	-11.1817
파탄	-11.1818
▁주문	-11.1818
▁없다는게	-11.1819
▁다른거	-11.182
▁하실	-11.1821
▁조건으로	-11.1822
▁아니여	-11.1822
부려	-11.1826
▁주는거	-11.1828
▁확실하다	-11.183
▁빼다	-11.1833
▁비핵화의지가	-11.1834
처벌	-11.1836
▁3~4	-11.1838
▁커지	-11.184
▁이행	-11.184
▁좌파들이	-11.184
▁믿은	-11.1843
▁저것도	-11.1847
▁때려죽이	-11.1847
▁바람직	-11.1849
법을	-11.185
▁과거에	-11.1853
▁저주	-11.1854
▁거대	-11.1854
갔네	-11.1859
▁남자한테	-11.1861
거리고	-11.1863
▁퍼주려	-11.1867
▁할래	-11.1867
▁푼	-11.1869
▁여지	-11.1869
▁폐지하고	-11.1869
받은거	-11.187
하였	-11.187
▁민주당과	-11.1873
▁꿈을	-11.1876
▁넷	-11.1876
▁했다가	-11.1877
▁재수없	-11.1878
▁출산에	-11.1887
불법	-11.1889
▁없는듯	-11.189
▁나한테	-11.1893
는둥	-11.1895
▁어마어마한	-11.1903
▁추구	-11.1907
▁속이려고	-11.191
이었으면	-11.191
▁맞는데	-11.1913
▁법은	-11.1914
그것도	-11.1914
▁대화는	-11.1918
자꾸	-11.192
꺼냐	-11.1923
자식들	-11.1924
▁죽어나가	-11.1925
▁돈벌어	-11.1929
▁하는일이	-11.1934
▁종북좌빨	-11.1938
▁말해라	-11.1939
▁사람들에게	-11.194
▁그런말	-11.194
쉽게	-11.1942
보이는데	-11.1942
들이네	-11.1942
거든요	-11.1946
▁약자	-11.1949
▁정보력은	-11.195
▁확실하	-11.1951
▁좌파가	-11.1951
▁열사	-11.1951
▁주면서	-11.1953
▁퍼줘	-11.1955
▁당부	-11.1956
▁마다	-11.1956
▁나와야	-11.1965
▁전기	-11.1968
거겠지	-11.1976
▁살라고	-11.1976
▁국가로	-11.1981
바라기	-11.1983
▁중국한테	-11.1983
▁아가	-11.1984
▁틀렸	-11.1984
▁자신을	-11.1985
▁될텐데	-11.1987
승차	-11.1989
될겁니다	-11.199
뿐만	-11.1993
들인	-11.1995
▁집값도	-11.1996
▁지원금은	-11.1996
제재완화	-11.1996
▁버려야	-11.1997
잃	-11.1998
▁;	-11.2
▁놈들아	-11.2003
투기	-11.2004
▁핵도	-11.2004
해주길	-11.2006
할수가	-11.2008
▁유은혜가	-11.201
▁넘길	-11.201
▁넘어간	-11.2011
쩔	-11.2012
▁어떡하	-11.2015
거릴	-11.2015
▁애낳지	-11.2015
먹는다	-11.2018
▁놀리	-11.2019
▁낄낄	-11.2023
원장	-11.2024
▁공평	-11.2024
질이나	-11.2028
▁이제라도	-11.2029
쩡	-11.203
융	-11.203
▁군복무	-11.2031
▁안타까운	-11.2031
▁안타까워	-11.2031
뇨	-11.2031
▁생중계	-11.2031
▁탁아소	-11.2031
▁헛발질	-11.2031
文	-11.2031
밍	-11.2031
▁20~30	-11.2031
▁거꾸로	-11.2031
▁강경대응	-11.2031
▁기생충	-11.2031
▁땡큐	-11.2031
▁부정부패	-11.2031
▁자연스럽게	-11.2032
▁여론몰이	-11.2032
▁개이버	-11.2032
▁글쎄	-11.2032
▁여럿	-11.2032
▁눈빛	-11.2032
▁해볼	-11.2032
▁체제유지	-11.2032
▁고령화	-11.2034
▁2019	-11.2034
▁정도껏	-11.2034
민들	-11.2034
▁서류	-11.2034
나라에	-11.2035
▁긴급	-11.2035
▁먹고사는	-11.2037
▁일개	-11.2037
▁미래의	-11.2037
▁알았을까	-11.2038
줬으면	-11.2038
▁싸울생각	-11.2039
▁단순히	-11.204
▁군인	-11.204
▁써서	-11.2041
▁교육에	-11.2042
정부야	-11.2043
▁무능한거고	-11.2044
▁전술핵	-11.2044
▁구축	-11.2045
▁시골	-11.2045
▁싸지르	-11.2045
▁딴나라	-11.2046
▁날린	-11.2046
▁전액	-11.2047
▁맡기고	-11.2047
과정	-11.2049
▁준비하고	-11.2049
▁독박	-11.2049
있어도	-11.205
▁담보로	-11.205
▁낳지마라	-11.2051
▁공산당이	-11.2051
▁쪽팔린다	-11.2052
▁학비	-11.2054
▁걸레	-11.2055
▁미안하다	-11.2055
▁개누리당	-11.2056
▁디질	-11.2056
▁입지	-11.2056
▁그래놓고	-11.2056
어야한다	-11.2059
▁구매	-11.2059
▁천하의	-11.206
하든지	-11.206
▁한거냐	-11.2063
▁연명	-11.2065
▁놓아	-11.2065
▁고문	-11.2065
▁내주고	-11.2066
▁멀었다	-11.2066
찍혔	-11.2068
힘들어	-11.2069
▁이것들이	-11.2069
▁아니란다	-11.2069
▁휴전	-11.207
▁임시	-11.207
▁없죠	-11.2075
▁여성부가	-11.2075
▁귀한	-11.2076
▁민간인	-11.2077
▁여성단체	-11.2077
▁조급	-11.2079
▁똘마니들	-11.208
새끼들은	-11.2081
▁돈퍼주	-11.2082
▁미친거	-11.2083
▁민좃당	-11.2083
▁야당이	-11.2083
▁단단	-11.2085
▁자동	-11.2086
놨다	-11.2087
▁털어서	-11.2088
▁35	-11.2088
▁사람들을	-11.2088
▁몇백	-11.209
▁어설프게	-11.209
▁코리아	-11.209
▁돕는	-11.2092
▁미중	-11.2092
▁없어지면	-11.2093
지않을까	-11.2094
▁온전	-11.2094
▁주기	-11.2095
▁받기	-11.2095
▁1%	-11.2098
해보자	-11.2099
▁외치고	-11.2101
▁깔아주고	-11.2101
눈치	-11.2102
하리라	-11.2104
등을	-11.2104
뜬	-11.2104
▁망조	-11.2104
뚜	-11.2105
입장에서	-11.2105
퉤	-11.2106
동맹	-11.2107
▁쳐넣	-11.2108
▁쇼하고	-11.2108
▁트럼프형	-11.2108
▁짜증	-11.211
▁다르게	-11.2111
518	-11.2112
촛불	-11.2112
석탄	-11.2113
▁호구짓	-11.2113
사회주의	-11.2115
한심하다	-11.2117
차려	-11.2124
▁틈	-11.2124
▁누군지	-11.2125
▁인식이	-11.2128
운운	-11.2128
▁이기적이	-11.2129
같아서	-11.2129
▁생각했는데	-11.2131
▁주변국	-11.2132
▁적당	-11.2132
등으로	-11.2134
아무리	-11.2134
동포	-11.2135
▁사건이	-11.2136
집회	-11.2136
드나	-11.2139
니들은	-11.2141
▁핑계로	-11.2142
▁출산이	-11.2145
▁원하는건	-11.2145
▁기분좋	-11.2145
분쟁	-11.2147
▁대단해	-11.2147
해야하나	-11.2148
여론	-11.2148
▁알아도	-11.2153
▁정치에	-11.2154
왕조	-11.2154
▁많냐	-11.2155
▁이런것	-11.2155
위해서	-11.2156
▁쓰러	-11.2158
려던	-11.2159
스럽네	-11.216
하고있는데	-11.2162
▁백성	-11.2166
▁외부	-11.2166
▁교수	-11.2166
았고	-11.2167
탱	-11.2172
▁이유도	-11.2174
▁뻔뻔한	-11.2174
▁묻어	-11.2175
?????????	-11.2179
성은	-11.2181
▁분들은	-11.2184
▁세계의	-11.2185
▁한건	-11.2186
▁원치	-11.2187
▁회담도	-11.2187
보려	-11.2189
▁28	-11.2191
년들이	-11.2192
▁저런거	-11.2194
되니까	-11.2196
▁종전이	-11.2197
▁됐으니	-11.2197
았지	-11.2197
▁힘들어도	-11.2198
사라	-11.2198
었는지	-11.2198
애비	-11.22
▁눈만	-11.2201
▁합리적인	-11.2203
▁미국대통령이	-11.2204
▁볼만	-11.2206
▁날리고	-11.2208
▁너희들은	-11.2208
겨라	-11.221
전문	-11.2211
▁것보다	-11.2213
명대	-11.2214
▁믿어라	-11.2215
우선	-11.2217
▁쓴거	-11.2217
트로	-11.2222
떨거지	-11.2222
▁싶을까	-11.2223
볼때	-11.2223
같냐	-11.2224
▁일본도	-11.2227
사항	-11.2227
당해	-11.2229
▁현혹	-11.223
▁인내	-11.223
▁시진핑이	-11.2231
▁알겠네	-11.2232
버리네	-11.2233
들어가는	-11.2234
턱	-11.2239
원장들	-11.2245
▁약쟁이	-11.2247
▁의지를	-11.2249
▁한반도에서	-11.2249
퍼주기	-11.225
돌이	-11.2251
중단	-11.2251
▁힘들어지	-11.2253
▁탈북	-11.2254
▁뽑을	-11.2256
방식	-11.2258
▁해피	-11.2259
▁색히들	-11.2259
▁공개하고	-11.2259
아니었	-11.2262
무현	-11.2265
▁기뻐	-11.2265
▁기대한	-11.2265
▁무능의	-11.2265
▁열라	-11.2266
▁살아서	-11.227
▁당선된	-11.2271
노력	-11.2274
받았다	-11.2275
▁달러	-11.2276
▁북폭이	-11.2277
▁보낸	-11.2278
▁남녀가	-11.2279
주십시요	-11.2283
▁길게	-11.2284
힘들다	-11.2287
▁한유총에	-11.2289
▁낳나	-11.2291
할수있다	-11.2293
▁하원	-11.2303
뭐가	-11.2305
▁결렬되니	-11.2306
▁문제지만	-11.2306
▁오전	-11.2307
앉	-11.2308
▁속냐	-11.231
▁막는	-11.2312
▁네이	-11.2314
▁굶겨	-11.2315
▁길거리	-11.2316
▁멀어	-11.2318
▁안낳지	-11.2319
▁달린	-11.2322
▁똘	-11.2323
▁처넣	-11.2325
▁실무	-11.2328
▁안내	-11.2329
▁벗어	-11.2329
비용이	-11.233
넨	-11.233
▁전자	-11.2331
▁안받고	-11.2331
ᄈ	-11.2334
▁imf	-11.2334
▁레임덕	-11.2334
▁어딨냐	-11.2334
▁정규직	-11.2334
▁주구장창	-11.2334
▁태블릿	-11.2334
▁사회진출	-11.2334
▁어려울	-11.2334
▁자업자득	-11.2334
▁부엉이	-11.2334
▁출산휴가	-11.2334
▁와이쥐	-11.2334
▁이게나라냐	-11.2334
♥♥	-11.2334
▁띄우	-11.2334
▁불바다	-11.2334
▁나혼자산다	-11.2334
▁억압	-11.2335
▁AI	-11.2335
▁빨개이	-11.2335
▁남녀평등	-11.2335
▁쌩쑈	-11.2335
▁버리는	-11.2336
▁똥구녕	-11.2336
한거네	-11.2336
립니다	-11.2336
▁드럼프	-11.2336
▁시간낭비	-11.2336
▁댓통	-11.2337
▁볼튼	-11.2337
▁된장인지	-11.2337
▁초저출산	-11.2337
▁기득권층	-11.2337
▁십년	-11.2337
▁요약	-11.2337
장에서	-11.2338
▁몇몇	-11.2339
▁시장경제	-11.2339
▁핵사찰	-11.2341
▁평화롭게	-11.2341
▁진행되	-11.2342
▁돌아오	-11.2342
▁구별	-11.2342
▁저임금	-11.2343
▁케	-11.2343
▁월북	-11.2344
▁오죽하면	-11.2344
▁충분하다	-11.2346
주자	-11.2346
▁방관	-11.2347
▁자유롭게	-11.2347
▁대대적으로	-11.2348
▁추구하는	-11.2349
▁읽어	-11.2349
▁나가는	-11.2349
▁오바마	-11.235
▁어따	-11.235
▁빈집	-11.235
▁30%	-11.235
▁이쁜	-11.235
▁순진하	-11.2351
▁끝나는	-11.2351
▁임마	-11.2353
▁편이	-11.2354
▁부모님들	-11.2354
▁미쳤냐	-11.2355
성장	-11.2356
▁20%	-11.2356
▁배만	-11.2356
▁호남	-11.2356
▁상처	-11.2357
▁숨어서	-11.2357
▁각성	-11.2358
▁다니면서	-11.2359
▁우리민족	-11.236
문제다	-11.2361
▁동급	-11.2362
▁보증	-11.2362
▁필요합니다	-11.2362
▁무너져	-11.2363
▁칼을	-11.2364
▁드러난	-11.2365
▁뒤져라	-11.2365
▁신호위반	-11.2366
▁아동학대	-11.2366
▁형량이	-11.2366
▁구입	-11.2367
쉽	-11.2367
▁것인데	-11.2368
▁거대한	-11.2369
▁년놈들	-11.237
문제로	-11.237
▁수사권	-11.237
▁거짓말쟁이	-11.237
개선	-11.237
▁대상으로	-11.2371
▁우리집	-11.2371
▁불가능하다	-11.2371
우리가	-11.2373
▁댓가를	-11.2373
▁보태	-11.2374
▁딱걸렸네	-11.2374
▁빠르게	-11.2376
▁기준으로	-11.2378
▁달창단	-11.238
▁뽑아야	-11.238
▁망언이라	-11.2381
▁어용	-11.2381
샛기	-11.2383
것이라	-11.2383
▁취임	-11.2383
▁나의	-11.2385
▁슬프다	-11.2388
하기만	-11.2389
▁똥줄이	-11.2389
▁수습	-11.2389
목구멍	-11.239
▁사기치려	-11.239
▁우리끼리	-11.2393
▁안되니까	-11.2394
▁않기	-11.2397
▁밀어주	-11.2401
▁법적	-11.2403
▁퍼줄라고	-11.2404
이란걸	-11.2404
▁대학까지	-11.2404
▁눈감아	-11.2405
▁그런게	-11.2406
▁자동화	-11.2408
짤	-11.241
▁빙시	-11.2411
▁빨갱이는	-11.2412
쉐키	-11.2414
▁직원들	-11.2414
▁사서	-11.2415
교환	-11.2415
▁알면	-11.2416
▁슬픈	-11.2416
쎄	-11.2417
▁그밥	-11.2418
▁간신	-11.2418
ho	-11.2419
▁고치	-11.2419
홀	-11.2419
안그래도	-11.242
ᅢ	-11.242
▁툭하	-11.242
찐따	-11.2421
▁집값을	-11.2425
봐서	-11.2426
▁직장인	-11.2427
▁회사가	-11.2427
▁이익이	-11.2428
리스트	-11.2429
▁비슷하	-11.243
바꾸	-11.2431
▁있기를	-11.2432
시킨다	-11.2432
▁가냐	-11.2434
▁이길	-11.2435
청년	-11.2436
▁지들만	-11.2437
▁당원들	-11.2439
당선	-11.244
▁하러	-11.244
▁대단하네	-11.2441
▁끼어	-11.2444
모여서	-11.2444
▁쟤들	-11.2445
▁모르지만	-11.2449
▁이용하는	-11.2451
▁조심하	-11.2451
▁인간을	-11.2451
살림	-11.2454
것이며	-11.2455
▁나빠	-11.2455
으셨	-11.2455
정도는	-11.2456
▁사람인데	-11.2456
▁복수	-11.2457
▁많은거	-11.2457
정치인	-11.2458
▁태어나면	-11.2458
생겨	-11.2458
▁어마어마	-11.246
▁받은적	-11.2462
대장	-11.2463
▁말아먹는	-11.2463
▁아니잖아	-11.2468
▁통신	-11.2474
▁손실	-11.2477
▁안되는게	-11.2477
▁목적은	-11.2482
▁지구상	-11.2484
년부터	-11.2485
▁돼지시키	-11.2486
▁양성	-11.2487
했으나	-11.2489
하루	-11.2489
통수	-11.2491
▁건들	-11.2493
날리	-11.2494
있었는데	-11.2494
▁가격이	-11.2498
▁망가지	-11.2499
세여	-11.25
먹은거	-11.2501
가능성	-11.2505
▁유지하고	-11.2506
▁의한	-11.2507
▁크고	-11.2509
▁무능함	-11.251
▁끊고	-11.2512
▁밥먹	-11.2512
주장	-11.2513
안되면	-11.2514
▁될거라고	-11.2516
▁택시가	-11.2516
넘들아	-11.2526
▁쓰는데	-11.2528
대통령은	-11.253
이민	-11.2531
임금	-11.2532
▁드립니다	-11.2533
미군	-11.2534
▁해요	-11.2535
▁넘기	-11.2536
여자가	-11.2537
번에	-11.2541
개방	-11.2541
집에서	-11.2544
▁흑	-11.2545
▁정치쇼	-11.2546
▁공작	-11.2546
연장	-11.2548
시켜놓고	-11.2552
살아라	-11.2555
▁해결해야	-11.2556
▁평소	-11.2556
▁그니까	-11.2558
▁먹어야	-11.2563
본인	-11.2565
▁저하	-11.2567
▁성범죄	-11.2568
▁뜻을	-11.2571
▁사람이냐	-11.2573
소리가	-11.2574
▁시작이다	-11.2575
▁친박당이	-11.2576
고싶냐	-11.2582
▁못하는게	-11.2585
앤	-11.2587
▁심한	-11.2587
▁부담이	-11.2588
▁안에서	-11.2592
▁이민가는	-11.2595
▁쩝쩝이가	-11.2595
▁사항	-11.2599
▁지옥이	-11.2599
못하면	-11.2601
▁윤	-11.2604
피같은	-11.2605
▁혼인	-11.2606
▁보유한	-11.2606
천국	-11.2612
▁아이들과	-11.2615
졌으면	-11.2617
길이다	-11.262
ᅲᅮ	-11.262
▁결렬된거	-11.2621
인력	-11.2621
남성	-11.2622
▁수준을	-11.2624
뢰	-11.2629
▁내란	-11.2631
▁됐는데	-11.2631
해야되는	-11.2634
▁전에는	-11.2635
▁애하나	-11.2636
▁빵에	-11.2636
▁기술이	-11.2636
좋고	-11.2639
▁사람에게	-11.2642
댁	-11.2643
▁32	-11.2644
▁눌러	-11.2645
쿨	-11.2646
✔	-11.2646
▁586	-11.2646
갠	-11.2646
덥	-11.2646
▁성추행	-11.2646
▁플러스	-11.2646
▁필리핀	-11.2646
⭕❤	-11.2646
꾀	-11.2646
뜸	-11.2646
▁다이어트	-11.2646
얀	-11.2646
▁화웨이	-11.2646
▁버틸	-11.2646
▁잠재적	-11.2646
▁출퇴근	-11.2647
▁비밀리에	-11.2647
▁더듬어	-11.2647
▁이명박그네	-11.2647
▁승객	-11.2647
▁모르쇠	-11.2647
▁벌고	-11.2648
▁퍼붓	-11.2648
대사관	-11.2648
▁죄송	-11.2648
▁절벽	-11.2648
▁극단적	-11.2648
▁주식시장	-11.2648
련들	-11.2648
▁등록금	-11.2648
▁육아수당	-11.2648
주려고	-11.2649
▁들먹이	-11.2649
▁앞두고	-11.265
명이상	-11.265
▁150	-11.2651
니꽈	-11.2651
▁과학	-11.2651
▁축복	-11.2651
▁시간끌	-11.2652
후보	-11.2652
▁깔끔하게	-11.2652
▁말그대로	-11.2652
▁듣기	-11.2652
▁멋대로	-11.2654
▁무얼	-11.2654
혈통	-11.2654
▁암담	-11.2654
▁책임진다	-11.2655
▁김영삼	-11.2655
▁2018	-11.2656
▁판치는	-11.2658
▁취업률	-11.2658
▁매월	-11.2658
▁매출	-11.2658
나간다	-11.266
▁평화팔이	-11.266
어주는	-11.2661
▁오줌	-11.2662
▁평화로운	-11.2662
아니지	-11.2663
▁내세우	-11.2663
것이지	-11.2664
▁쪽팔려서	-11.2664
▁ᄡ	-11.2665
▁썰	-11.2665
겠소	-11.2669
▁능력있는	-11.267
▁벌금	-11.267
▁영감	-11.2672
▁박통	-11.2672
▁평화타령	-11.2672
▁시급하다	-11.2673
▁트럼프대통령님	-11.2673
▁문제라고	-11.2674
폭격	-11.2675
▁몰아내자	-11.2675
▁숨길	-11.2675
▁소형	-11.2676
▁못내	-11.2676
▁나라다운	-11.2677
▁외벌이로	-11.2678
▁둘러	-11.2679
▁감옥가	-11.268
▁급식	-11.2681
개념	-11.2683
▁가득한	-11.2683
▁있구만	-11.2684
▁확정	-11.2684
▁만나기	-11.2684
극우	-11.2686
▁드러내	-11.2686
법으로	-11.2687
목록	-11.2688
▁터질	-11.2689
▁밀당	-11.2689
▁다음엔	-11.2691
▁해야하는데	-11.2692
▁오죽	-11.2692
▁그런것	-11.2694
▁살아있는	-11.2695
▁교통사고	-11.2695
▁아이도	-11.2698
▁나쁜짓	-11.2699
▁병진	-11.27
▁간단한	-11.27
▁심히	-11.27
▁북한주민	-11.2701
▁벌써부터	-11.2701
▁분명한	-11.2702
▁자기자식	-11.2702
▁존재감	-11.2707
일까요	-11.2707
▁나왔는데	-11.2708
ᄇᄉ	-11.2708
▁한반도가	-11.2708
불러	-11.2708
▁치워	-11.2709
▁하나요	-11.271
▁사고를	-11.271
나봄	-11.271
ᅩ	-11.2711
▁생각해봐	-11.2712
▁잘하네	-11.2714
▁버는	-11.2717
▁그쪽	-11.2719
▁넘어가지	-11.2719
▁낳고싶겠냐	-11.272
용지	-11.2724
꺼라고	-11.2725
▁혜택받	-11.2725
▁어린애들	-11.2728
▁댓가	-11.2728
▁언젠가는	-11.2728
▁소리는	-11.2728
▁영향	-11.2729
이용	-11.2731
▁클럽에서	-11.2734
▁나가라	-11.2735
▁떠들어대	-11.2735
랭이	-11.2736
한마디	-11.2737
펴	-11.2739
▁vs	-11.2739
겸	-11.2739
▁개정	-11.274
튀	-11.274
▁아닥하고	-11.2741
위협	-11.2741
▁외교도	-11.2741
좆	-11.2742
태극기	-11.2742
잇다	-11.2743
멋	-11.2743
부동산	-11.2743
문슬람	-11.2743
뽀	-11.2743
마당에	-11.2744
특검	-11.2744
그렇지	-11.2745
흑	-11.2745
개혁	-11.2747
카풀	-11.2747
▁초반	-11.2748
▁일본을	-11.2748
염병	-11.2749
악질	-11.2751
위장	-11.2752
▁애낳냐	-11.2754
▁끌어내리	-11.2754
▁디스플레이	-11.276
▁많아요	-11.2762
바른	-11.2763
▁한반도평화	-11.2764
만이라도	-11.2764
▁후진	-11.2765
▁우선이다	-11.2767
하것냐	-11.2769
발표	-11.2772
▁몰랐어	-11.2772
▁이웃	-11.2781
▁문디	-11.2781
하는순간	-11.2784
▁그에	-11.2787
▁높여	-11.2787
유공자명단	-11.2789
▁맞았다	-11.279
▁자가	-11.2791
판단	-11.2792
▁빨대	-11.2793
▁뒤졌	-11.2798
▁600	-11.2799
많고	-11.2799
내요	-11.2802
▁군인들	-11.2803
아마	-11.2803
▁사진은	-11.2804
▁대마	-11.2807
때매	-11.2808
▁마음을	-11.2808
▁서두르	-11.281
할겁니다	-11.2812
▁돼지새끼가	-11.2813
▁자제	-11.2814
조약	-11.2816
하는사람	-11.2817
▁떠들고	-11.2817
▁하려다	-11.2818
▁핵폐기가	-11.282
해야할듯	-11.2821
▁그렇다면	-11.2822
하는것은	-11.2822
▁성과를	-11.2826
▁명분을	-11.2826
▁지나가	-11.2829
▁사기친거	-11.2831
즘	-11.2831
▁쓸수	-11.2832
시키지	-11.2834
달러	-11.2835
▁일으키	-11.2839
했어야지	-11.2844
▁약한	-11.2846
대처	-11.2848
▁주먹	-11.2848
▁뭐래	-11.2849
▁까라	-11.2849
확대	-11.285
▁그런건	-11.285
▁피임	-11.285
▁수당	-11.285
▁빠듯	-11.2851
▁바지	-11.2852
자료	-11.2853
▁괜찮은	-11.2854
▁머저리들	-11.2854
리스	-11.2856
믿어	-11.2857
해져	-11.2858
▁돌아서	-11.2859
진심	-11.2863
의혹	-11.2865
▁기반	-11.2865
현상	-11.2865
레기들	-11.2865
▁고맙	-11.2867
▁생각하나	-11.2867
열어	-11.2868
없어요	-11.2871
▁눈앞에	-11.2873
▁배치	-11.2874
▁팔아먹는	-11.2874
▁내용이	-11.2875
▁!!!!	-11.2875
▁바뀌고	-11.2876
었으니	-11.2878
▁봐줄	-11.2878
났어	-11.2879
줘봐	-11.288
▁북한경제	-11.288
주나	-11.288
▁다행이	-11.2883
하것네	-11.2887
▁이제까지	-11.2887
▁영변으로	-11.2889
련다	-11.289
▁비하	-11.2893
▁들아	-11.2896
연기	-11.2898
거같냐	-11.2899
▁북괴놈들	-11.29
▁결혼하기	-11.29
▁욕할	-11.2903
아녀	-11.2907
28	-11.291
▁문이	-11.2912
▁들지	-11.2913
ll	-11.2915
처먹고	-11.2915
로인해	-11.2915
he	-11.2918
혁	-11.2919
▁늙은이	-11.2922
▁오라	-11.2923
북미회담	-11.2924
▁마셔	-11.2926
돈줘	-11.2927
▁이상하다	-11.2928
바퀴	-11.2929
▁걔들	-11.293
▁팩트다	-11.293
국민의	-11.2931
▁사기치는	-11.2931
▁조아	-11.2933
▁잘살고	-11.2933
▁정권과	-11.2937
▁언론과	-11.2937
▁살려주	-11.294
▁저것들이	-11.294
▁좁	-11.2941
▁도와줘	-11.2944
낳냐	-11.2946
좋네	-11.2946
▁문죄인과	-11.2948
▁부를	-11.2949
▁걱정하는	-11.295
▁너그	-11.2952
▁언젠가	-11.2952
참사	-11.2953
▁시켜서	-11.2954
▁한유총의	-11.2956
▁알고있는	-11.2957
렀다	-11.2959
▁섹	-11.2959
▁자들	-11.2959
죽일	-11.296
시킨거	-11.2963
▁바랬	-11.2964
▁죽였	-11.2966
올리고	-11.2968
▁초미세	-11.2969
▁껍데기	-11.2969
셰	-11.2969
▁가부장제	-11.2969
▁김준교	-11.2969
▁꾸준히	-11.2969
▁얼어죽을	-11.2969
J	-11.2969
▁일으켜	-11.2969
▁먹여살리	-11.2969
▁저감조치	-11.2969
▁고등어	-11.2969
▁통진당	-11.2969
▁하루이틀	-11.2969
▁싱글	-11.2969
▁밀려	-11.2969
▁바둑이	-11.2969
▁the	-11.2969
▁으이구	-11.2969
의미	-11.2969
욕심	-11.297
▁귀엽	-11.297
▁숨쉬기	-11.297
▁어리버리	-11.2971
▁특혜	-11.2971
▁원수	-11.2971
▁정의로운	-11.2971
▁양사장	-11.2971
ᅩᅩ	-11.2971
▁애국보수	-11.2971
▁생계	-11.2972
▁거듭	-11.2972
▁오랜	-11.2972
▁파쇄업체	-11.2972
▁공권력	-11.2972
하느냐	-11.2972
▁더불어민주당	-11.2972
▁영혼	-11.2973
▁박봄	-11.2973
▁좋겠어요	-11.2975
▁선전선동	-11.2975
▁애국심	-11.2976
▁따름	-11.2976
▁응징	-11.2976
▁설계	-11.2978
▁어쩔거냐	-11.2978
▁낳겠나	-11.2979
니돠	-11.2981
▁굴러	-11.2981
▁이기심	-11.2981
▁박근혜때	-11.2983
바랍니다	-11.2984
▁흐르	-11.2984
▁놓지	-11.2985
▁협치	-11.2985
▁차원이	-11.2986
▁돌릴	-11.2987
▁불매	-11.2988
▁삥	-11.2992
▁바로잡	-11.2992
▁절차	-11.2992
▁계집	-11.2993
▁뉴스에	-11.2993
▁원하는대로	-11.2994
▁주도권	-11.2994
▁푼돈	-11.2994
▁부류	-11.2995
강국	-11.2995
▁고급	-11.2996
▁기본적으로	-11.2996
▁빡대가리	-11.2996
▁정보력이	-11.2997
▁믿겠다	-11.2997
▁되었으면	-11.2998
▁해보자	-11.2999
▁부른	-11.2999
▁혀	-11.3001
▁쓴다	-11.3001
보임	-11.3001
▁순수	-11.3002
▁혜택은	-11.3003
바르	-11.3004
▁줘서	-11.3006
▁힘없는	-11.3007
문정부	-11.3009
▁빠져나가	-11.3012
▁창업	-11.3012
▁말할	-11.3013
▁14	-11.3014
▁보수를	-11.3014
▁좌파는	-11.3014
▁한국인들	-11.3015
▁수정	-11.3015
배우	-11.3017
▁합성	-11.302
▁애낳아서	-11.3022
▁했던거	-11.3023
▁설사	-11.3023
▁밥먹듯	-11.3024
▁역사적으로	-11.3026
▁귀신	-11.3026
▁돈에	-11.3027
겼다	-11.3028
▁돼지새키	-11.3028
▁못차리고	-11.3029
▁책임감	-11.303
▁국개의원	-11.3031
주니까	-11.3032
▁하나다	-11.3033
▁애안낳	-11.3036
▁임대료	-11.3036
▁지지한다	-11.3037
▁옆에서	-11.3037
▁연일	-11.3038
▁문기사	-11.3039
쟁이들	-11.304
뜨고	-11.3041
▁이동	-11.3041
,,,,,,	-11.3042
▁어거지	-11.3043
▁국제사회에서	-11.3043
▁방송국	-11.3044
이었고	-11.3044
▁안보이냐	-11.3044
▁문재인보다	-11.3044
▁퍼줄생각	-11.3046
하셔야	-11.3046
▁당연하다	-11.3047
▁싸움이	-11.3049
▁괜찮아	-11.3049
▁쓰래기	-11.3049
▁자식에게	-11.3051
▁올려서	-11.3052
▁안되길	-11.3052
▁옥	-11.3053
▁퍼주면	-11.3054
털어	-11.3055
별로	-11.3057
자나요	-11.3059
▁허허허	-11.3059
이라는데	-11.3061
년뒤에	-11.3061
▁벗	-11.3062
할거고	-11.3062
15	-11.3064
▁뺀	-11.3064
▁정도가	-11.3066
▁내주	-11.3071
▁한거지	-11.3072
▁않아서	-11.3072
🐕	-11.3072
빛	-11.3072
쉑	-11.3072
옷	-11.3073
끌어	-11.3073
삐	-11.3073
무조건	-11.3073
▁지붕	-11.3075
▁전쟁은	-11.3075
변호사	-11.3075
5.18	-11.3076
▁안에	-11.3076
뒷	-11.3076
연예인	-11.3076
시키려는	-11.3076
솔직히	-11.3077
투표	-11.3077
스스로	-11.3077
▁유일	-11.3077
▁군대보내	-11.3078
곳에서	-11.3081
▁한국과	-11.3081
유럽	-11.3082
▁음주	-11.3084
연봉	-11.3085
뻔했네	-11.3085
▁인원	-11.3086
폭락	-11.3086
맨날	-11.3086
▁정신차리지	-11.3087
▁화력	-11.3088
▁북미회담이	-11.309
▁서울역	-11.3091
되어야한다	-11.3091
끌고	-11.3095
하거라	-11.3098
▁전세계에서	-11.3098
▁틀니	-11.3101
같은것들	-11.3102
▁짠	-11.3103
▁줄어든다	-11.3107
있지만	-11.3111
▁상호	-11.3112
▁합쳐	-11.3115
ᄏᄏᄀᄏ	-11.3115
▁본인은	-11.3116
▁보내자	-11.3117
▁보입니다	-11.3117
▁훌륭한	-11.3117
세끼들	-11.3117
생김	-11.3119
▁사는것	-11.312
능력이	-11.3121
▁조사해서	-11.3121
▁되었으니	-11.3123
전화	-11.3123
▁나아질	-11.3125
▁부의	-11.3125
▁띄워	-11.3125
▁알수가	-11.3126
▁이왕	-11.3129
▁폼	-11.313
▁탄핵하고	-11.313
어휴	-11.3131
했었다	-11.3132
▁풀어줄	-11.3136
빠지고	-11.3138
▁탄핵하자	-11.314
▁쯤	-11.3148
해야죠	-11.3148
▁훌륭	-11.3151
▁넘어가는	-11.3151
농단	-11.3152
였구나	-11.3152
▁순진	-11.3152
▁하지말라	-11.3154
▁얘기가	-11.3156
▁못하는거	-11.3156
찍어	-11.3158
싶은	-11.3159
▁없어지고	-11.3159
▁여성은	-11.316
▁아이구	-11.3161
▁것들아	-11.3164
▁당신을	-11.3165
▁짓고	-11.3168
▁못차리	-11.3169
중심	-11.317
▁써먹	-11.3171
▁쓰레기들아	-11.3173
▁기만하고	-11.3174
▁튀어	-11.3175
시네요	-11.3175
▁교육의	-11.3176
일뿐이다	-11.3178
▁임기내	-11.3179
▁놀려	-11.318
▁어리	-11.3182
안가	-11.3184
▁승자	-11.3185
안나	-11.3186
▁보수정권	-11.3186
▁길어	-11.3187
▁아직은	-11.3187
▁비극	-11.3187
▁이러다가	-11.319
▁괜찮다	-11.319
앉아	-11.319
▁수법	-11.3191
만드는	-11.3191
▁입대	-11.3194
엇다	-11.3195
▁불쌍해	-11.3196
▁박근혜는	-11.3199
평화가	-11.3199
▁노출	-11.32
▁어디갔	-11.32
한다는거	-11.3203
철수하고	-11.3207
▁당원	-11.3209
▁안가고	-11.3209
싶어서	-11.321
아니라	-11.3212
▁한심해	-11.3215
▁났다	-11.3219
▁환기	-11.3223
▁월급은	-11.3224
나오는데	-11.3224
▁일보	-11.3226
▁받아야지	-11.3229
▁바라보는	-11.323
▁잘안	-11.3231
▁하고싶은	-11.3232
▁하시길	-11.3234
▁주목	-11.3234
면허	-11.3237
▁결혼하지	-11.324
▁사업을	-11.3244
자도	-11.3247
했기	-11.325
▁않았을	-11.3251
29	-11.3253
▁지원해라	-11.3253
를위해	-11.3256
▁탐	-11.3259
▁북한에만	-11.3259
분들은	-11.3261
조국	-11.3262
▁하구	-11.3265
됐고	-11.3268
가아니라	-11.327
시끼	-11.327
▁호주	-11.3271
▁외벌이	-11.3271
▁최악이	-11.3272
슬람	-11.3274
▁실리	-11.3274
▁높고	-11.3279
사교육	-11.328
지않냐	-11.328
▁애낳은	-11.3281
볼려고	-11.3282
▁늙은이들	-11.3283
십니까	-11.3284
▁최후	-11.3285
▁접어	-11.3285
경제는	-11.3288
랫	-11.329
할거야	-11.3291
시키려	-11.3292
싶으면	-11.3293
닮	-11.3294
▁불어	-11.3294
▁망국	-11.3295
▁교육자가	-11.3295
▁결과물	-11.3296
▁유치원도	-11.3296
▁도와주고	-11.3297
▁사람한테	-11.3299
▁환장한	-11.3299
▁된게	-11.3299
▁했어	-11.3299
쫓	-11.3301
틴	-11.3302
씁	-11.3302
▁싸랑해요	-11.3302
▁워킹맘	-11.3302
▁자연스레	-11.3302
댜	-11.3302
얄	-11.3302
쳣	-11.3302
축하드려요	-11.3302
▁뒷바라지	-11.3302
▁서둘러	-11.3302
▁이것저것	-11.3302
▁이뤄지	-11.3302
▁인터뷰	-11.3302
▁컴퓨터	-11.3302
떴	-11.3302
뺄	-11.3302
▁문완용	-11.3302
▁림종석	-11.3302
▁이벤트	-11.3302
▁짝사랑	-11.3302
▁못배운	-11.3302
▁블랙박스	-11.3302
▁범법자	-11.3302
🐷	-11.3302
패밀리	-11.3302
▁문다혜	-11.3302
▁버텨	-11.3302
▁개혁개방	-11.3303
▁자주국방	-11.3303
▁시계제로	-11.3303
▁하루하루	-11.3303
▁뇌물현	-11.3304
▁그당시	-11.3304
▁부작용	-11.3304
;;;;;	-11.3304
▁남혐	-11.3305
▁뱃속	-11.3305
▁더불어공산당	-11.3305
▁자유민주	-11.3305
▁시댁	-11.3305
▁시험관	-11.3305
▁있었고	-11.3306
▁배부르	-11.3306
▁여성인권	-11.3306
▁불안한	-11.3306
▁도망갈	-11.3306
▁중재는	-11.3306
▁파멸	-11.3307
▁모양새	-11.3307
▁인멸	-11.3307
▁국민여러분	-11.3307
▁최초	-11.3307
▁흥분	-11.3308
▁존경합니다	-11.3309
▁어르신들	-11.3309
▁사법부	-11.3309
▁불쌍타	-11.3309
▁연변	-11.3309
▁씌우	-11.331
▁누릴	-11.331
▁득세	-11.3311
▁죽여놓고	-11.3311
▁근본적으로	-11.3311
▁4000	-11.3312
만명이	-11.3313
▁내용을	-11.3313
할만한	-11.3313
여당	-11.3314
▁문재이니	-11.3314
▁뽕쟁이	-11.3314
▁짝이	-11.3315
▁할머니	-11.3316
▁걸로	-11.3316
▁없을것	-11.3317
▁당하고도	-11.3318
▁못믿겠다	-11.3318
▁보여주세요	-11.3318
▁분양	-11.3319
▁문틀딱	-11.3319
▁격차	-11.332
▁외출	-11.332
나라는	-11.3321
기싫어	-11.3321
▁자처하	-11.3322
▁범죄집단	-11.3322
▁진정성이	-11.3322
▁안녕	-11.3323
▁포용	-11.3323
▁눈알	-11.3323
▁이룬	-11.3323
▁대성	-11.3323
감이다	-11.3325
▁아니었으면	-11.3325
▁행동은	-11.3325
▁척살	-11.3325
▁사라져라	-11.3326
▁들어가면	-11.3329
▁한놈	-11.3329
▁미세먼지도	-11.3329
▁가면서	-11.333
▁기초	-11.333
▁상종	-11.3332
▁한민족이	-11.3332
▁이런나라에서	-11.3333
하지않는다	-11.3335
▁북한정권	-11.3337
러운	-11.3337
▁낳았는데	-11.3338
▁위해서라도	-11.3338
▁위성으로	-11.3342
▁조종	-11.3343
아나	-11.3344
▁안하니	-11.3346
▁있는듯	-11.3347
하것다	-11.3347
에라이	-11.3347
▁느낀다	-11.3347
할려면	-11.3348
▁이넘	-11.3348
생각은	-11.3349
열차타고	-11.3351
▁씹재앙	-11.3351
▁미끼	-11.3351
▁속내를	-11.3353
▁기타	-11.3353
▁고쳐야	-11.3353
셨나요	-11.3355
▁손으로	-11.3355
▁안보인다	-11.3355
지않을	-11.3356
▁벌리	-11.3356
led	-11.3356
▁걸렸는데	-11.3357
▁광화문에서	-11.3358
▁옳았	-11.3358
▁추세	-11.3358
한다며	-11.336
▁해야하는	-11.336
▁선제	-11.336
가리고	-11.3366
▁끝난다	-11.3369
▁짜져	-11.3369
▁뭔소리	-11.3369
▁놈들이다	-11.337
▁딴데	-11.337
▁싶어요	-11.3371
▁비위	-11.3371
▁역적이	-11.3377
▁이것만	-11.3379
▁한국사람	-11.339
▁대장	-11.3391
▁키우면	-11.3391
▁궁지	-11.3394
▁그지같은	-11.3395
▁누구도	-11.3396
▁소신	-11.3397
세까지	-11.3398
이었네	-11.3402
▁발악을	-11.3402
▁망쳐	-11.3402
▁바보같은	-11.3403
▁않나요	-11.3405
입시	-11.3406
해줘서	-11.3407
▁이것들아	-11.3408
▁김대중이	-11.3409
▁문빠들아	-11.3409
▁김정은이랑	-11.3412
▁약간	-11.3413
밝혀	-11.3413
만원은	-11.3415
▁샀	-11.3417
위장평화쑈	-11.3417
▁하하	-11.3418
우리는	-11.3419
▁도와줄	-11.342
▁꼴랑	-11.3421
▁돈많이	-11.3421
그나마	-11.3422
▁광화문에	-11.3422
▁미워	-11.3423
경협	-11.3424
짜증	-11.3424
알고도	-11.3424
▁털고	-11.3425
▁보여야	-11.3426
▁담당	-11.3426
시켜주세요	-11.3432
▁일본이랑	-11.3432
▁서민들이	-11.3433
▁같았	-11.3433
▁짤라	-11.3433
▁조작된	-11.3433
그럴	-11.3433
투기꾼	-11.3433
▁떠들던	-11.3434
직업	-11.3435
교류	-11.3435
완성	-11.3435
세습	-11.3435
요즘	-11.3438
▁진정으로	-11.3438
폭동	-11.3439
▁수명	-11.344
▁전체를	-11.3441
▁포기해야	-11.3441
사이트	-11.3441
▁국방의	-11.3443
▁여자랑	-11.3446
쳤는데	-11.3446
▁약을	-11.3449
▁알았어도	-11.345
▁중지	-11.3452
▁속이는	-11.3454
▁욕하면	-11.3456
▁저딴게	-11.3459
▁보여주고	-11.3459
▁머리를	-11.3461
▁소용	-11.3463
▁결혼해	-11.3465
▁노리는	-11.3466
시켜야한다	-11.3469
▁할짓	-11.347
으니깐	-11.3471
대접	-11.3474
▁소릴	-11.3474
▁반전	-11.3474
▁위협하는	-11.3478
▁기사로	-11.348
▁반성하고	-11.3481
▁배제	-11.3484
긋다	-11.3485
똥꼬	-11.3485
입고	-11.3485
으려면	-11.3488
▁가다가	-11.3489
기차	-11.349
▁쓰라고	-11.3492
▁땅에서	-11.3494
▁내새끼	-11.3495
▁비핵화없이	-11.3499
아웃	-11.3502
옆에	-11.3503
하라는데	-11.3504
왜구	-11.3504
꺼임	-11.3506
방문	-11.351
▁살아야지	-11.351
▁대재앙	-11.351
식구	-11.3511
시청	-11.3511
▁파악도	-11.3515
????????????	-11.3516
라는것	-11.3527
▁오고	-11.3528
공제	-11.3529
▁올라오	-11.3531
▁협박하는	-11.3531
된것	-11.3531
▁다닌	-11.3531
▁문제점	-11.3532
▁사상이	-11.3534
34	-11.3535
▁안쓰고	-11.3538
인양	-11.3538
▁넘는	-11.3538
▁민족주의	-11.354
갔는데	-11.3542
▁누구보다	-11.3542
▁있는거냐	-11.3542
▁들이대	-11.3545
▁어이없	-11.3545
통제	-11.3547
바엔	-11.3547
▁잘되길	-11.3548
▁하나의	-11.3549
시계	-11.355
중간	-11.3551
▁동무	-11.3551
▁협	-11.3555
▁준표	-11.3555
▁못하다	-11.3556
오르고	-11.3557
▁거두	-11.3558
▁장관이	-11.3558
▁때리고	-11.3559
▁계기	-11.356
▁합의하고	-11.3563
▁행복해	-11.3568
▁풀어라	-11.357
▁120	-11.3573
▁사라지고	-11.3574
▁당하지	-11.3575
국제	-11.3577
▁ᆞᆞ	-11.3578
인증	-11.3579
▁결혼에	-11.3581
▁터져	-11.3581
하셔	-11.3583
▁흡수	-11.3584
부자	-11.3584
▁이번정부	-11.3586
----	-11.3586
▁외친	-11.3589
치않	-11.3589
무능한	-11.3589
프로가	-11.359
▁낮추	-11.3591
▁교사들	-11.3591
▁갔는데	-11.3593
▁대부분의	-11.3593
아저씨	-11.3597
▁여론이	-11.36
간만에	-11.36
녕	-11.36
중독	-11.36
둬야	-11.3601
▁포기해	-11.3601
▁시키면	-11.3605
▁그자리	-11.3606
▁할려면	-11.3606
▁증거를	-11.3611
했나보네	-11.3612
섯	-11.3614
▁이상의	-11.3615
▁맥	-11.3617
한미	-11.3619
너네	-11.3619
▁아쉬울	-11.362
문서	-11.362
▁무시하는	-11.3621
억원	-11.3621
▁안보고	-11.3622
▁코앞	-11.3623
건물	-11.3628
▁나이가	-11.3628
▁보는게	-11.3631
▁살펴	-11.3631
행님	-11.3632
▁,,,	-11.3632
▁사람의	-11.3632
잡힌	-11.3635
▁안되네	-11.3635
▁아이낳고	-11.3639
했군	-11.3639
하기위해	-11.364
장애	-11.364
▁치열	-11.364
거예요	-11.3641
터져	-11.3641
▁입이	-11.3642
가보네	-11.3645
버스	-11.3645
▁언제든	-11.3645
ut	-11.3645
릅니다	-11.3645
럿	-11.3646
▁터지는	-11.3646
돼지한테	-11.3646
죽인	-11.3646
쏟	-11.3647
z	-11.3647
️	-11.3647
👏	-11.3647
▁기독교	-11.3647
▁옮겨	-11.3647
괘	-11.3647
댐	-11.3647
빗	-11.3647
쒸	-11.3647
▁경유차	-11.3647
굼	-11.3647
궈	-11.3647
▁비디오	-11.3647
▁흡연	-11.3647
▁가산점	-11.3647
▁애당초	-11.3647
▁헬조센	-11.3647
▁발등에	-11.3647
▁때문이라	-11.3647
▁기래기	-11.3647
▁개학연기	-11.3647
▁오함마	-11.3648
▁삥땅	-11.3648
▁북미대화	-11.3649
▁쥐닭	-11.3649
▁빼돌리	-11.365
▁개정으니	-11.365
▁가뜩	-11.3651
▁몇푼	-11.3651
▁체제가	-11.3652
도움	-11.3652
▁신한반도	-11.3653
▁죄없	-11.3653
▁변호	-11.3654
▁장려금	-11.3654
▁무력화	-11.3655
▁못받는	-11.3655
▁말한마디	-11.3656
▁26	-11.3656
▁아우성	-11.3656
▁안통한다	-11.3657
▁운전기사	-11.3657
▁괴물	-11.3657
▁도둑놈들	-11.3659
▁살려주세요	-11.3659
따윈	-11.3659
막고	-11.366
▁사회생활	-11.366
▁택시를	-11.366
▁기밀	-11.366
▁퍼줘야	-11.3663
▁걔네	-11.3664
▁교회	-11.3665
▁기대도	-11.3665
쇼에	-11.3666
▁싸다	-11.3666
구녕	-11.3667
▁시대는	-11.3667
▁애셋	-11.3668
▁패망	-11.3668
▁급감	-11.3668
▁인종	-11.3669
▁장애인	-11.3669
▁잘못된거	-11.3669
끼들아	-11.3673
▁모순	-11.3674
▁어용언론	-11.3675
▁되기를	-11.3676
▁의회	-11.3678
▁통신사	-11.3678
▁못잡	-11.3679
▁말해주	-11.3679
▁당했네	-11.3681
과도한	-11.3683
마시고	-11.3683
▁기울	-11.3683
▁부수	-11.3684
▁아파트값	-11.3688
갈수	-11.369
▁지능이	-11.3694
나오고	-11.3694
▁있죠	-11.3694
▁청구	-11.3694
▁석자	-11.3694
▁핵실험장	-11.3695
해보고	-11.3695
▁거론	-11.3696
넘아	-11.3697
▁잔치에	-11.3698
▁이해를	-11.3699
▁빡쳐	-11.3699
하는짓이	-11.37
ᄏᄀᄏ	-11.3702
드립니다	-11.3704
▁포기한	-11.3706
▁간다고	-11.3707
▁아들을	-11.3707
▁삶의질	-11.3708
▁못살겠다	-11.371
▁맞춰서	-11.371
▁돈벌고	-11.371
▁딸랑	-11.3716
완료	-11.3716
▁방사능	-11.3717
▁분명하다	-11.3717
린데	-11.3718
▁피우	-11.3719
▁움직이는	-11.372
▁국제적으로	-11.372
▁자기네	-11.372
▁생색내	-11.3721
거같음	-11.3724
평화쇼	-11.3725
▁길에	-11.3725
▁나가고	-11.3725
▁저번에	-11.3728
하겟다	-11.3728
▁서로가	-11.3729
▁뼈	-11.3729
▁실어	-11.3729
▁공무원들이	-11.373
▁맞는다	-11.373
▁되었는데	-11.373
벌리	-11.3737
▁종일	-11.3737
더라구요	-11.3738
▁쉴드치	-11.3739
▁두놈	-11.374
▁반값	-11.3744
▁싫다고	-11.3745
▁나서지	-11.3748
▁김정은이를	-11.3749
▁필요없고	-11.3751
년전에	-11.3751
▁숨겼	-11.3752
▁되네	-11.3752
▁전투가	-11.3755
▁개성	-11.3757
▁넘은	-11.3757
▁이거지	-11.3758
▁착각하는	-11.3759
▁미소	-11.376
▁보임	-11.376
▁선정	-11.3764
▁잊은	-11.3764
▁미화	-11.3765
▁투자한	-11.3768
▁그럴수	-11.3769
▁다르지	-11.3771
▁번영을	-11.3771
▁문죄인을	-11.3774
▁넘치는	-11.3774
▁이주	-11.3776
▁그자리에	-11.3777
앞잡이	-11.3777
▁만든거	-11.3777
출생	-11.3777
빽	-11.3778
느낌	-11.3778
설레발	-11.3778
됏	-11.378
▁차선	-11.3781
▁운전사	-11.3781
규모	-11.3782
나해라	-11.3782
▁사랑하는	-11.3782
더러운	-11.3783
직접	-11.3785
하려다	-11.3788
▁자자	-11.3788
▁때릴	-11.3788
무엇	-11.3793
▁등록	-11.3794
▁똥만	-11.3795
▁트럼프에	-11.3796
▁상식이	-11.3798
▁망국당	-11.3803
줄아냐	-11.3804
퍼줘	-11.3805
▁나오니	-11.3806
필요한	-11.3806
▁팔아먹을	-11.381
▁정신줄	-11.3811
▁안남았	-11.3814
▁배우자	-11.3818
맞추	-11.3818
▁보낸다	-11.382
▁전진	-11.382
▁다행이지	-11.3821
흘리	-11.3822
동생	-11.3822
청소	-11.3822
▁성사되	-11.3823
!~	-11.3825
▁거짓과	-11.3826
▁남성들이	-11.3826
▁두곳	-11.3826
하늘	-11.3829
▁해소	-11.3831
▁결렬을	-11.3831
▁뭐든지	-11.3834
오세요	-11.3834
하십니다	-11.3837
▁종북세력	-11.3839
▁포기하게	-11.384
학부모	-11.3841
▁밝히고	-11.3843
공약	-11.3845
▁올렸	-11.3846
▁교안이	-11.3846
바라는	-11.3846
색기들	-11.3847
▁막았	-11.3848
▁목숨이	-11.3848
본적이	-11.3849
아직	-11.385
막힌	-11.385
▁중반	-11.3851
어디서	-11.3854
▁ᄌ같	-11.3854
▁아우	-11.3854
▁끝내고	-11.3856
할려는	-11.3856
▁반만	-11.3858
▁어릴때	-11.3858
▁되는거다	-11.3858
▁끌려가	-11.3859
▁있니	-11.3862
해선	-11.3864
▁수꼴들	-11.3865
▁카드를	-11.3866
그러냐	-11.3866
▁한국경제	-11.3868
▁끌어내려야	-11.387
▁숨기려	-11.387
▁망쳐놓	-11.3871
만들어서	-11.3871
▁소득이	-11.3872
▁드리	-11.3873
▁미개	-11.3875
▁아깝	-11.3876
▁우대	-11.3876
▁잘못한	-11.3876
▁또라이들	-11.3877
▁엄한	-11.3878
▁한국대통령	-11.3879
▁헬조선은	-11.3879
▁부르고	-11.3883
답이다	-11.3884
시술	-11.3884
▁발목	-11.3887
걸까요	-11.3889
하지마시고	-11.389
▁쇼질	-11.3891
▁안보가	-11.3893
▁생각하는데	-11.3894
떠나	-11.3898
▁트럼프님	-11.39
한다면서	-11.3901
▁돈받	-11.3905
▁다신	-11.3909
있으	-11.3914
▁뚜	-11.3915
▁자빠	-11.3919
▁유명한	-11.392
▁말던	-11.3921
할때부터	-11.3921
▁닫고	-11.3924
그때	-11.3925
기능	-11.3926
▁줬으면	-11.3928
이었지	-11.3929
▁통장	-11.393
▁동포	-11.3931
드릴	-11.3932
▁뿐이지	-11.3934
▁관계자	-11.3934
▁처벌해야	-11.3935
바치	-11.3936
▁가구	-11.3938
▁남자도	-11.394
공작	-11.3941
▁집단이다	-11.3942
▁좋아하고	-11.3943
▁했어야지	-11.3944
▁적이다	-11.3945
진실	-11.3946
▁된것	-11.3946
▁본인들이	-11.395
▁한거야	-11.3956
▁되기	-11.3957
갈려고	-11.3959
▁헤어지	-11.3963
▁있는거야	-11.3965
▁이세상	-11.3966
밀어	-11.3969
▁인생은	-11.397
▁좋아한다	-11.3974
죽이는	-11.3975
천년	-11.3977
범죄자	-11.3979
것인데	-11.3983
▁빈손	-11.3983
▁된다면	-11.3984
▁보여줄	-11.3985
▁현정부는	-11.3987
▁핵무기는	-11.3987
▁하는일	-11.3988
▁눈먼	-11.399
돠	-11.3991
혐	-11.3993
▁보여줘	-11.3994
부렸	-11.3995
북미	-11.3996
▁신난	-11.3997
생명	-11.3998
▁늘고	-11.4
핸	-11.4001
렉	-11.4002
▁힘드니	-11.4002
▁총출동	-11.4003
▁잃어	-11.4004
엠	-11.4004
꿍	-11.4004
▁국가존립	-11.4004
▁깊어진	-11.4004
▁뒷구멍으로	-11.4004
▁유승민	-11.4004
▁핸드폰	-11.4004
렌	-11.4004
켓	-11.4004
랩	-11.4004
핫	-11.4004
▁몽땅	-11.4004
▁김씨왕조	-11.4004
▁한꺼번	-11.4004
▁캐나다	-11.4005
▁재가동	-11.4005
▁한미훈련	-11.4005
▁냅두	-11.4005
▁트람프	-11.4005
방에서	-11.4005
▁긴밀	-11.4005
▁더럽다	-11.4006
▁사고방식	-11.4006
▁여혐	-11.4006
▁풍년	-11.4006
▁화장실	-11.4006
▁영어도	-11.4006
▁설훈	-11.4006
▁때려죽여	-11.4007
▁종북주사파	-11.4008
▁놀랬	-11.4008
▁넘어갔	-11.4008
▁아이큐	-11.4009
▁세계최고	-11.4009
신세	-11.4009
▁말로는	-11.4009
▁사기칠	-11.401
▁있습니까	-11.401
▁고철	-11.4011
▁70%	-11.4012
▁정직하	-11.4013
▁어린놈이	-11.4014
인민공화국	-11.4014
▁무자식	-11.4015
▁예전엔	-11.4016
▁과감	-11.4016
▁지원금이	-11.4016
▁목매	-11.4018
▁정밀	-11.4018
▁리그	-11.4018
▁그토록	-11.4019
▁엌ᄏᄏ	-11.4019
▁나라꼬라지	-11.4019
▁떨거지들	-11.4019
▁그러니깐	-11.4019
▁영향력	-11.4021
▁직시하	-11.4022
▁보내면	-11.4023
▁카드가	-11.4024
부턴	-11.4025
▁날라가	-11.4025
있다면	-11.4027
▁이럴려	-11.4027
▁에고	-11.4028
▁우버	-11.4029
▁뭐하노	-11.403
▁시원하게	-11.403
▁나왔네	-11.4031
▁본인의	-11.4035
▁북치고	-11.4036
▁손절	-11.4036
▁어려운데	-11.4037
▁기대된다	-11.4038
▁이나라의	-11.4038
▁들키	-11.4041
▁10%	-11.4041
▁장단	-11.4042
▁깨어나	-11.4043
▁몇시간	-11.4044
▁문통령	-11.4044
▁회수	-11.4044
▁그렇지만	-11.4045
▁메인에	-11.4045
▁경력	-11.4045
▁존재하는	-11.4046
▁빌려	-11.4047
▁중심으로	-11.4047
▁언어	-11.4048
▁싸우지	-11.405
▁이사람	-11.4051
▁힘내라	-11.4053
▁있을수	-11.4053
▁심화	-11.4053
▁ᄒᄃᄃ	-11.4055
▁안달났	-11.4055
▁확장	-11.4055
될것이다	-11.4056
▁반면	-11.4057
구속	-11.4058
주셔서	-11.4058
45	-11.4058
▁파면	-11.4059
▁미친개	-11.4059
▁이민가고	-11.406
▁되어있다	-11.406
▁실정	-11.4062
▁가르쳐	-11.4063
지말라고	-11.4063
▁알파	-11.4063
▁처분	-11.4064
▁살리는	-11.4066
▁어쩌니	-11.4066
▁세상은	-11.4067
▁있었던거	-11.4068
▁기가찬다	-11.4068
96	-11.4069
해온	-11.4073
▁내일부터	-11.4073
▁미안한	-11.4075
▁싸워라	-11.4078
▁망언이냐	-11.4079
▁모지리들	-11.408
▁뿌려	-11.408
▁불렀	-11.4081
▁해야합니다	-11.4082
▁중형	-11.4083
▁그런지	-11.4084
▁명분으로	-11.4084
▁중동	-11.4085
▁석	-11.4086
▁쥐어주	-11.4088
그만하고	-11.4093
▁공기가	-11.4095
뜯	-11.4096
▁놀았	-11.4097
▁높이는	-11.4097
▁봤지	-11.4099
▁정상이냐	-11.4101
▁비전	-11.4103
▁대거	-11.4104
꼴이네	-11.4105
▁합의는	-11.4105
▁1~2	-11.4111
▁있을까요	-11.4112
▁나쁜놈들	-11.4113
▁된장	-11.4113
▁새퀴	-11.4114
▁난임부부	-11.412
▁벌려	-11.4121
▁미제	-11.4121
▁북에서	-11.4121
▁하지말	-11.4124
대며	-11.4126
삼아	-11.4128
▁필요해	-11.4128
▁올려라	-11.4128
▁인당	-11.413
▁사기쳤	-11.4131
▁보이고	-11.4132
▁한번만	-11.4132
▁달창들이	-11.4133
▁소리만	-11.4134
▁것이라	-11.4134
▁쓸어버리	-11.4135
▁일에	-11.4136
▁이것을	-11.4136
▁프로그램	-11.4136
스터	-11.4137
▁오른다	-11.4139
▁대국	-11.4141
▁부정하는	-11.4142
노답	-11.4143
년후에	-11.4145
▁대북제제	-11.4145
덤	-11.4146
쏴	-11.4148
자유한국당	-11.4149
궁금	-11.4152
살인마	-11.4153
민생	-11.4153
파쇄	-11.4155
찬양	-11.4158
최저	-11.4159
▁화해	-11.416
북한의	-11.4161
▁카풀이	-11.4161
▁확률	-11.4161
자슥	-11.4162
성향	-11.4163
▁너희가	-11.4163
부탁	-11.4166
na	-11.4166
▁관심을	-11.4167
▁이상하게	-11.4167
▁한국만	-11.4168
▁폐기하는	-11.4168
원에서	-11.4172
인대	-11.4173
▁문제인데	-11.4173
많은데	-11.4178
▁말하는거	-11.418
▁들리네	-11.418
탓이라고	-11.4181
▁문재앙도	-11.4183
▁들어간다	-11.4184
▁내려라	-11.4184
▁안보내	-11.4184
김치	-11.4185
도와주	-11.4187
▁전정부	-11.419
▁살아온	-11.419
▁탓을	-11.4191
▁베트남까지	-11.4192
열차	-11.4194
초소	-11.4196
자원	-11.4199
▁준거	-11.4199
▁적절	-11.42
▁있을거	-11.4203
▁풀려	-11.4203
▁총맞	-11.421
▁억울한	-11.421
갔어	-11.4211
▁있단	-11.4211
된건	-11.4211
였군	-11.4213
▁지식	-11.4216
시구요	-11.4217
▁택도	-11.4217
▁쌓아	-11.4229
▁탓이다	-11.423
세월	-11.4232
▁패거리	-11.4232
▁예산이	-11.4233
▁포기한다	-11.4234
▁소문	-11.4235
▁줄어들면	-11.4237
ᄅᄋ	-11.4237
붙이	-11.4238
▁감방가	-11.424
못함	-11.424
그저	-11.4242
▁경험하지	-11.4243
부리는	-11.4244
▁엘	-11.4245
말대로	-11.4248
될수	-11.425
▁건강한	-11.4253
13	-11.4259
▁봤으면	-11.4259
▁뽀	-11.426
▁있다니	-11.4266
한것처럼	-11.4268
▁위선	-11.427
▁정권에서	-11.4272
때문이지	-11.4273
▁김치녀들	-11.4274
뿐이고	-11.4276
▁둘은	-11.4277
▁할거면	-11.4278
관세	-11.4279
무장해제	-11.428
▁심리	-11.4281
▁이목	-11.4281
▁나올지	-11.4282
▁책임지는	-11.4283
들으면	-11.4284
▁언젠	-11.429
▁나를	-11.4291
▁받는거	-11.4292
았으니	-11.4293
▁색기들	-11.4294
거려	-11.4295
▁총동원	-11.4295
했다는데	-11.4296
▁이빨	-11.4296
▁몽둥이	-11.4296
금액	-11.4297
▁북미가	-11.4298
재인이	-11.4298
▁뺏어	-11.43
▁영향이	-11.4302
▁고통을	-11.4303
▁우리대통령	-11.4304
▁없는거다	-11.4305
▁살수있는	-11.4306
드립치	-11.4308
▁정보도	-11.431
위로	-11.4314
천만명	-11.4315
더러	-11.4324
뀌	-11.4325
▁불려	-11.4327
▁노력을	-11.433
▁기피하	-11.4331
분담	-11.4332
▁못한다고	-11.4333
▁풀어야	-11.4338
▁두들겨	-11.4338
▁폐기를	-11.4339
▁군대를	-11.4341
▁없에	-11.4342
사형	-11.4347
▁님들	-11.4347
▁반역	-11.4349
▁없어지는	-11.435
▁햐	-11.4352
▁이리도	-11.4353
▁부서	-11.4354
35	-11.4355
▁신경도	-11.4358
왕국	-11.4361
▁대선때	-11.4364
설치	-11.4364
▁깔끔	-11.4369
▁막아주	-11.437
보조	-11.437
▁기쁨	-11.4371
▁수장이	-11.4372
벤	-11.4375
▁고정간첩	-11.4375
▁승츠비	-11.4375
▁왤케	-11.4375
▁훤히	-11.4375
쁠	-11.4375
▁좌지우지	-11.4375
▁똥씹은	-11.4375
▁조경태	-11.4375
▁총알받이	-11.4375
▁공통점	-11.4375
▁동북아	-11.4375
▁약소국	-11.4375
▁바퀴벌레	-11.4375
▁바미당	-11.4375
▁불체자	-11.4375
▁장하성	-11.4375
▁안락사	-11.4375
▁이따구	-11.4375
▁퍽이나	-11.4375
▁맨붕	-11.4375
▁나불대	-11.4375
▁임대주택	-11.4375
▁어떡해	-11.4375
▁배워야	-11.4375
읍시다	-11.4375
▁실무협상	-11.4376
▁졸개들	-11.4376
▁시즌	-11.4376
▁호주머니	-11.4376
▁잔대가리	-11.4376
▁리얼	-11.4376
▁골빈	-11.4376
▁벼랑끝	-11.4377
▁90%	-11.4377
▁상황파악	-11.4377
▁신경쓸	-11.4378
때려죽	-11.4379
▁굴복	-11.4379
▁노인네들	-11.4379
▁드러운	-11.438
▁안타깝지만	-11.438
▁혼인율	-11.438
▁출생율	-11.438
▁양측	-11.4381
▁언제쯤	-11.4381
랜드	-11.4382
▁몇천	-11.4382
▁믿음직	-11.4383
▁안보팔이	-11.4383
▁장기적으로	-11.4383
▁파토난	-11.4383
▁돌대가리들	-11.4383
▁가장큰	-11.4383
▁남북통일	-11.4384
▁신혼	-11.4384
▁하야하라	-11.4385
넘들은	-11.4385
▁핵리스트	-11.4385
▁열폭	-11.4385
▁박살내고	-11.4385
▁충실	-11.4386
▁석방	-11.4386
▁사기칠려다	-11.4388
▁헛물	-11.4388
▁유독	-11.4388
▁친척	-11.4388
▁들어와서	-11.4389
▁기대가	-11.4389
▁사람답게	-11.439
▁디져라	-11.439
▁범죄자들	-11.4391
▁바빠	-11.4391
▁벌벌	-11.4391
토리	-11.4391
▁한국여자랑	-11.4392
되거나	-11.4394
▁따르는	-11.4394
▁발전이	-11.4394
▁애키울	-11.4394
▁없었음	-11.4394
이라면서	-11.4395
▁최상	-11.4397
▁CVID	-11.4397
▁어벙아	-11.44
▁그딴거	-11.44
때보다	-11.4401
▁줄이자	-11.4401
줬어	-11.4402
▁싫어합니다	-11.4403
▁아니었나	-11.4404
▁아닌이상	-11.4404
▁있었음	-11.4404
▁있을거라	-11.4406
▁한번씩	-11.4406
▁돼야	-11.4406
끼다	-11.4407
▁선호	-11.4407
▁할말없	-11.4409
▁능력없는	-11.4409
▁난리났네	-11.441
▁비롯한	-11.441
▁뽑았는데	-11.4412
진않	-11.4412
▁환수	-11.4415
▁전범	-11.4416
▁제출	-11.4417
▁태워	-11.4417
▁꿈깨라	-11.4421
▁현상이	-11.4421
▁접수	-11.4422
이번에	-11.4422
▁없구만	-11.4424
▁조작이다	-11.4426
억이상	-11.4426
▁상실	-11.4427
▁문재인대통령이	-11.4428
▁현실에	-11.4429
내부	-11.4432
▁웃음이	-11.4432
▁많은걸	-11.4432
▁만난다고	-11.4432
▁소위	-11.4434
▁법치	-11.4435
비율	-11.4437
▁뇌에	-11.4438
▁깨어	-11.4438
▁하고싶은거	-11.4439
▁하든지	-11.4439
▁피해는	-11.4441
▁문재앙이랑	-11.4441
▁낮추고	-11.4442
▁유발	-11.4443
종석	-11.4444
▁통할	-11.4444
▁보게	-11.4445
▁이런것들	-11.4447
▁인생을	-11.445
▁전달	-11.4452
▁당당하	-11.4453
▁여자탓	-11.4454
▁결렬되었	-11.4457
▁싸가지	-11.4461
▁멍청하게	-11.4462
▁대행	-11.4464
▁쓰게	-11.4467
▁생리	-11.4468
할것이고	-11.447
경제나	-11.4474
▁뽑고	-11.4476
신문	-11.4478
▁자식한테	-11.4481
▁축제	-11.4482
▁궁금한	-11.4484
▁컸	-11.4485
▁집살	-11.4486
▁닥쳐	-11.4488
▁누구랑	-11.4488
▁빡치	-11.4489
▁전통	-11.449
▁느껴지	-11.4491
▁도장	-11.4492
하드만	-11.4499
▁키우냐	-11.45
개정은	-11.4501
▁부분이	-11.4501
▁아까워	-11.4503
▁발암먼지	-11.4503
▁주권	-11.4504
낸거	-11.4505
단위	-11.4506
▁배신자	-11.4506
▁하노이에서	-11.4507
▁어때	-11.4508
▁호구가	-11.4508
▁그대들	-11.4513
▁무식하고	-11.4515
▁투성이	-11.4516
▁관한	-11.4517
▁됐어	-11.4517
▁남는게	-11.4517
▁싶어하는	-11.4521
▁이야기를	-11.4521
▁보라	-11.4522
웃기네	-11.4522
▁안타	-11.4522
▁시작하자	-11.4524
쓴거	-11.4529
F	-11.4529
▁제재만	-11.4531
쏠	-11.4532
스모그	-11.4532
빅	-11.4532
아닙니다	-11.4532
박정희	-11.4533
동무	-11.4533
쭉	-11.4533
똑바로	-11.4533
멍청한	-11.4534
블랙리스트	-11.4534
▁내일은	-11.4534
▁이때까지	-11.4535
프레임	-11.4535
▁안정되	-11.4535
▁만나라	-11.4536
▁핑계대	-11.4536
아이를	-11.4537
▁낫네	-11.4538
압박	-11.4542
▁제조	-11.4544
▁일베들	-11.4545
한거임	-11.4546
꼼수	-11.4549
강간당	-11.455
사단	-11.4551
▁쯧	-11.4552
▁잡히	-11.4552
선생	-11.4554
게이트	-11.4555
핵무기	-11.4555
전세계	-11.4556
▁넘들은	-11.4556
▁필수적	-11.4556
▁무너지는	-11.4556
▁안했으면	-11.4558
▁국개들	-11.4568
사찰	-11.4569
▁사기질	-11.4575
▁만만치	-11.4576
모양이	-11.4578
▁안난다	-11.458
서민들	-11.4582
주변	-11.4586
▁해본	-11.4586
기본	-11.4591
▁위해서는	-11.4591
▁복구	-11.4595
▁나오게	-11.4595
온다고	-11.4595
▁심어	-11.4598
강대국	-11.46
▁삶은	-11.46
▁양심도	-11.4601
▁있겠다	-11.4601
세키	-11.4602
해가며	-11.4603
▁시키지	-11.4605
▁청와대와	-11.4608
▁있는건지	-11.4611
▁없었고	-11.4611
그래야	-11.4614
▁주말	-11.4615
▁총선은	-11.4626
▁사라	-11.4626
▁한판	-11.463
조금	-11.4632
▁내다보	-11.4633
▁소주	-11.4635
▁기사라고	-11.4635
였습니다	-11.4638
누구처럼	-11.464
▁의원들	-11.4643
▁나눠주	-11.4643
국방	-11.4644
남편	-11.4645
▁얻고	-11.4645
▁문통과	-11.4647
▁하셔	-11.4647
갈듯	-11.4649
▁기무사	-11.4652
갱이들	-11.4652
았어	-11.4654
so	-11.4655
행정	-11.4655
▁비하면	-11.4656
▁바보야	-11.4657
▁환호	-11.4659
천만이	-11.466
▁산아제한이	-11.466
▁시원하	-11.466
더듬	-11.4661
▁개소리야	-11.4661
▁알지도	-11.4662
▁무지한	-11.4662
▁않았어	-11.4663
▁망하면	-11.4664
▁외에는	-11.4666
▁긍정적	-11.4668
▁부동산투기	-11.4669
▁낳으라는	-11.4673
▁불법을	-11.4674
달려	-11.4675
▁선수	-11.4679
크다	-11.468
▁거잖아	-11.4683
▁덩어리	-11.4684
▁큰거	-11.4687
김정은은	-11.4691
▁믿나	-11.4691
▁술수	-11.4693
지않음	-11.4695
▁삼아	-11.4697
▁조작이라네	-11.4702
흘	-11.4704
차단	-11.4705
▁굴려	-11.4707
키우는	-11.471
▁애안낳는	-11.471
쁘	-11.4716
꺄	-11.4717
▁하느라	-11.472
▁모셔	-11.4722
지않게	-11.4722
탄다	-11.4723
▁욕만	-11.4723
▁편한	-11.4724
버리지	-11.4724
킴	-11.4726
하지말라	-11.4727
풀리	-11.4728
시대가	-11.473
▁단계적	-11.4732
▁감방에	-11.4732
뽑은	-11.4733
했을때	-11.4733
▁현실에서	-11.4734
▁아이들의	-11.4736
▁쪽팔려	-11.4738
보여주	-11.4738
▁모를줄	-11.4742
▁쿠	-11.4744
▁문빠들은	-11.4744
하기로	-11.4746
▁결혼안하	-11.4749
▁나오나	-11.4753
일동안	-11.4753
남자가	-11.4756
앱	-11.4758
꼰	-11.4758
엽	-11.4758
릉	-11.4758
셀	-11.4759
핏	-11.4759
탁현민	-11.4759
퓰	-11.4759
떳	-11.4759
▁WOLED	-11.4759
▁kbs	-11.4759
▁우동사리	-11.4759
▁이래저래	-11.4759
롬	-11.4759
욧	-11.4759
퉷	-11.4759
▁QD	-11.4759
▁죗값	-11.4759
샷	-11.4759
▁기저귀	-11.4759
▁피눈물	-11.4759
맴	-11.4759
헉	-11.4759
▁역겨워	-11.4759
▁이덕선	-11.4759
▁나같아도	-11.4759
▁측근	-11.4759
▁껄껄	-11.4759
▁혁신	-11.4759
▁플랜	-11.4759
▁눈감고	-11.476
▁인민재판	-11.476
▁아무래도	-11.476
▁금융	-11.476
▁자랑스런	-11.476
기계	-11.476
▁스토리	-11.476
▁국정조사	-11.476
▁든든하	-11.4761
▁빙다리	-11.4761
▁왔다갔다	-11.4761
▁언능	-11.4761
▁잃은	-11.4761
▁네일베	-11.4761
세키들	-11.4761
▁떨어짐	-11.4762
▁쩝쩝쩝	-11.4762
▁증언	-11.4762
▁황교환	-11.4763
▁종특	-11.4763
▁유시민	-11.4763
낳는다	-11.4764
▁이만큼	-11.4764
▁싶겠나	-11.4765
▁국민투표	-11.4766
▁건드리	-11.4766
▁사형시켜라	-11.4766
▁망해가고	-11.4768
▁때려잡자	-11.4768
▁로또	-11.4769
▁알겠는데	-11.4769
▁뛰어난	-11.4769
▁자가용	-11.477
까말까	-11.477
▁요란	-11.4771
▁퍼준다고	-11.4771
▁경제개발	-11.4771
▁어쩔건데	-11.4771
▁경영	-11.4772
▁합법화	-11.4772
▁소리나	-11.4772
▁뒷북	-11.4773
▁놓았	-11.4773
▁사대강	-11.4773
▁보좌	-11.4773
▁수십년간	-11.4773
▁바랬는데	-11.4774
▁사실이다	-11.4775
▁죽도록	-11.4775
하는거임	-11.4776
▁헛된	-11.4776
▁헛돈	-11.4777
▁대화로	-11.4778
▁동원해서	-11.4778
▁너무많다	-11.4779
▁표정봐라	-11.4779
▁사탕	-11.4779
▁중국산	-11.4779
▁꼴값	-11.478
▁중립	-11.4781
▁사례	-11.4782
▁확충	-11.4782
▁엉뚱한데	-11.4783
▁어깨	-11.4783
없었	-11.4783
▁장관님	-11.4783
▁선처	-11.4784
▁싫은데	-11.4784
▁중요해	-11.4784
▁옛	-11.4785
▁북핵시설	-11.4786
▁초치	-11.4786
▁있을텐데	-11.4787
▁임명	-11.4788
▁나라망신	-11.4789
그건	-11.4789
▁고사포로	-11.4789
▁시작하면	-11.479
▁되도록	-11.479
▁끊어라	-11.4791
▁자빠져	-11.4792
▁절때	-11.4793
▁주로	-11.4794
▁염원	-11.4794
▁수십억	-11.4794
▁매국노들이	-11.4795
▁간병	-11.4796
▁나오기	-11.4797
▁개인적으로	-11.4798
▁시체	-11.4798
▁통보	-11.4799
▁필요없는	-11.48
▁금리	-11.48
▁막아야	-11.4801
▁신경좀	-11.4801
▁뿐입니다	-11.4802
▁찰	-11.4803
▁할거라고	-11.4805
▁놀아라	-11.4806
▁고발	-11.4807
▁허위	-11.4807
▁국가적	-11.4808
▁CIA	-11.481
▁풀어주면	-11.481
▁최후의	-11.4812
▁밥만	-11.4812
▁하시고	-11.4812
▁안가는	-11.4813
▁허세	-11.4813
▁농간	-11.4814
▁일이지	-11.4815
▁빨아대는	-11.4815
수작	-11.4817
▁늘어나는	-11.4817
▁DNA	-11.4819
▁바우처	-11.4819
아닌가요	-11.4819
▁무리한	-11.4819
▁뒷전	-11.4819
세금으로	-11.482
▁했잖아	-11.482
▁비유	-11.4822
400	-11.4823
환경이	-11.4823
주머니	-11.4823
▁빨라	-11.4823
않는다	-11.4825
▁촌	-11.4826
도없는데	-11.4826
주식	-11.4826
▁요구한	-11.4829
▁우위	-11.483
▁대통령이라니	-11.483
▁아끼	-11.4831
▁국민한테	-11.4832
▁큰일이다	-11.4834
▁성비	-11.4834
▁ᄄ	-11.4837
▁나팔수	-11.4837
새ᄁ	-11.484
▁결렬되서	-11.4842
▁합의서	-11.4843
▁갖고있	-11.4844
▁죽자	-11.4846
▁늘어나고	-11.4848
거라곤	-11.4848
봐봐	-11.4848
드셨	-11.4849
뽑아서	-11.485
▁저항	-11.4851
▁구린내	-11.4851
▁글구	-11.4854
▁명목으로	-11.4854
▁좋을듯	-11.4855
▁부르는	-11.4856
되었네	-11.4856
이념	-11.4856
▁태우	-11.4859
▁무마	-11.4862
하지않는	-11.4863
▁놔두고	-11.4865
▁할까요	-11.4866
▁도태되	-11.4869
문재앙부터	-11.4875
▁물건너갔	-11.4875
▁이런일	-11.4878
힘들고	-11.488
▁만들어놓은	-11.4881
▁쑈를	-11.4881
▁그짝	-11.4881
▁걔	-11.4883
▁마주	-11.4884
▁사단	-11.4886
▁몰고가	-11.4887
▁평소에	-11.4887
싶고	-11.489
▁보수당	-11.4891
수단	-11.4893
▁짧은	-11.4897
▁국제사회에	-11.49
▁카풀은	-11.4902
▁되는거야	-11.4903
▁김정은보다	-11.4905
▁발목잡	-11.4906
냨ᄏᄏ	-11.4906
▁있다는것	-11.4907
댕이	-11.4909
▁연설	-11.491
▁경제와	-11.4913
▁조작이냐	-11.4913
▁기대하고	-11.4916
▁궁리만	-11.4917
▁생각해도	-11.4917
뻥	-11.4919
었을텐데	-11.4919
것뿐	-11.492
▁탄압	-11.4921
▁했습니다	-11.4922
오오	-11.4924
▁손주	-11.4925
률이	-11.4926
결정	-11.4926
여러분	-11.4928
이러니	-11.493
▁즐기고	-11.493
▁기회는	-11.4931
스타일	-11.4931
젖	-11.4932
자동차	-11.4933
▁도전	-11.4933
드루킹	-11.4933
보조금	-11.4934
핵실험	-11.4934
평생	-11.4937
▁듭니다	-11.4939
▁환경에서	-11.4939
같으니	-11.494
채로	-11.4943
존재	-11.4945
▁아파	-11.4948
강간	-11.4949
▁27	-11.495
보육	-11.495
▁반기	-11.4953
▁갸	-11.4957
취소	-11.4959
망해	-11.4962
현재	-11.4962
발언	-11.4964
▁외국에서	-11.4965
▁경제적인	-11.4965
담배	-11.4966
얘	-11.4967
▁놓치	-11.4968
저지르	-11.4969
하기엔	-11.4971
억짜리	-11.4971
▁소굴	-11.4974
▁뜯어가	-11.4977
▁숨어	-11.498
▁줄어도	-11.498
▁그래요	-11.498
남탓	-11.4983
▁정시	-11.4983
나오냐	-11.4985
▁밥은	-11.4987
▁체재	-11.4988
상태로	-11.4989
▁마음으로	-11.4994
▁거둬	-11.4994
최대	-11.4995
철거	-11.4996
▁지지하고	-11.4997
매국	-11.4998
▁22	-11.4998
▁숨긴거	-11.4999
▁민심이	-11.5003
질까	-11.5004
▁감면	-11.5006
외치	-11.5007
받으려	-11.5007
▁이상해	-11.501
▁저래도	-11.5011
▁환상에	-11.5012
▁정보가	-11.5014
다닌다	-11.5016
▁나오는거	-11.5016
▁마셨	-11.5017
▁빨아라	-11.5018
해야됨	-11.5018
▁겸	-11.5024
▁싫지	-11.5027
▁힘써	-11.5027
▁무슨말	-11.503
▁기회다	-11.5031
▁밑장빼	-11.5034
▁내지	-11.5036
임기	-11.5038
▁답을	-11.5039
▁저쪽	-11.5043
▁나중	-11.5044
▁차려야	-11.5045
▁정자	-11.5046
▁윗대가리들	-11.5046
▁내린	-11.5046
▁일베충들	-11.5047
▁간첩새끼	-11.5048
국민으로서	-11.505
오래	-11.5051
▁문재인정부는	-11.5052
놓으니	-11.5053
▁서울에서	-11.5053
▁알려줬	-11.5054
▁권한	-11.5055
▁어디갔나	-11.5056
▁돈있는	-11.5057
▁여성가족부가	-11.5057
높은	-11.5058
릴때	-11.5059
▁번돈	-11.5059
▁뜬	-11.506
▁부모를	-11.5064
▁부리다	-11.5064
갖다	-11.5067
▁실망이	-11.5068
됐냐	-11.5068
▁하겠지만	-11.5069
외엔	-11.5073
못해서	-11.5074
▁이러한	-11.5076
▁천명	-11.5083
▁될거라	-11.5085
▁될꺼	-11.5085
었을때	-11.5086
▁북한애들	-11.5087
▁정치판	-11.5088
▁요구했	-11.5093
샛	-11.5095
▁않으려	-11.5097
▁맛있	-11.51
▁쳐들어	-11.51
▁사라진	-11.5103
▁세키	-11.5105
무상	-11.5105
▁덕분	-11.5106
▁해야함	-11.5106
직한	-11.5108
사회에서	-11.5115
▁공산주의자들	-11.5116
▁변한	-11.5121
여성들	-11.5122
씩이나	-11.5124
▁밤에	-11.5128
▁상관없다	-11.5128
▁받아먹	-11.5128
사실을	-11.5129
▁웃으	-11.5129
리기	-11.5129
▁도덕	-11.5133
▁숨겼다	-11.5135
▁지혜	-11.514
▁전쟁으로	-11.5144
▁않은가	-11.5145
새낀	-11.5147
세상이	-11.5147
롤	-11.5151
▁외교부	-11.5157
~~~!!!	-11.5158
V	-11.5158
웨	-11.5159
▁빤스	-11.5159
▁ICBM	-11.5159
▁KBS	-11.5159
▁똥오줌	-11.5159
▁빈라덴	-11.5159
▁쫒아	-11.5159
▁쿠테타	-11.5159
떄	-11.5159
엑	-11.5159
▁과소평가	-11.5159
▁무작정	-11.5159
▁쇼쇼쇼	-11.5159
▁펼쳐	-11.5159
▁군병력	-11.5159
▁최전방	-11.5159
▁호박씨	-11.5159
🐶	-11.5159
▁로동당	-11.5159
▁기회주의자	-11.5159
▁가운데	-11.5159
▁대구경북	-11.5159
▁개인사업자	-11.5159
▁들러리	-11.5159
▁내집마련	-11.5159
▁고난의	-11.5159
▁오리발	-11.5159
▁나락으로	-11.5159
▁진지하게	-11.516
▁주제파악	-11.516
▁촛불집회	-11.516
▁낮춰	-11.516
▁유착관계	-11.516
▁얼간이	-11.516
▁첫번째	-11.516
▁노력하는	-11.5161
▁앞세워	-11.5161
▁억울하다	-11.5161
▁닮은	-11.5161
▁겪어보	-11.5161
▁김정숙	-11.5161
▁진즉	-11.5161
▁닮아	-11.5161
▁가계부	-11.5162
▁암울하	-11.5162
▁더럽고	-11.5162
▁폐암	-11.5162
▁조옷	-11.5163
▁의료	-11.5163
▁아까운	-11.5163
▁통큰	-11.5163
해졌다	-11.5163
▁학습	-11.5163
▁발휘	-11.5163
▁먹힐	-11.5163
국익을	-11.5164
▁공화국	-11.5164
▁세기의	-11.5164
▁싸운	-11.5164
▁수준하고는	-11.5164
▁쉬고	-11.5164
▁딱걸린	-11.5165
▁박힌	-11.5165
▁자산	-11.5165
밖엔	-11.5165
▁뒷전이고	-11.5165
▁국공립유치원	-11.5165
▁비록	-11.5166
▁휴직	-11.5166
▁정신차리세요	-11.5166
▁공뭔	-11.5166
▁신념	-11.5166
▁사유재산인정	-11.5167
▁태생	-11.5167
▁커피	-11.5167
▁즐기면서	-11.5167
▁편드는	-11.5168
mo	-11.517
▁죽지	-11.517
▁강경하게	-11.5171
▁차리세요	-11.5171
▁풀릴	-11.5171
▁꼴찌	-11.5172
▁비례	-11.5173
▁대출금	-11.5173
▁자궁	-11.5173
슨상	-11.5174
▁아쉬워서	-11.5174
▁전쟁준비	-11.5175
하는것들은	-11.5176
▁알앗	-11.5176
▁사랑합니다	-11.5176
▁여름	-11.5176
▁북핵포기	-11.5176
다음에	-11.5177
▁제자리	-11.5177
힘든데	-11.5178
▁칭	-11.5178
▁막막	-11.5179
▁지켜주세요	-11.518
▁선포	-11.518
▁매입	-11.5181
▁살고싶다	-11.5181
▁끼지도	-11.5181
▁탄핵가자	-11.5182
할배	-11.5182
▁될리가	-11.5182
▁망하길	-11.5183
▁늘어놓	-11.5183
▁무섭네	-11.5183
▁알텐데	-11.5184
▁혼자사는게	-11.5184
ha	-11.5186
▁불과하다	-11.5186
누나	-11.5187
▁살짝	-11.5187
회의	-11.5188
티비씨	-11.5188
▁도리	-11.5188
▁되겠나	-11.5189
▁압수	-11.5189
▁고갈	-11.5189
에따라	-11.5189
▁산다고	-11.519
▁걸렸다	-11.5191
▁실실	-11.5191
▁터졌	-11.5192
▁맞습니다	-11.5192
▁달라질	-11.5193
시킴	-11.5194
▁들어줄	-11.5197
▁안뽑	-11.5198
▁기약	-11.5198
▁늙어서	-11.5199
▁마시길	-11.5199
▁자진출두	-11.5202
▁이건뭐	-11.5202
▁이제껏	-11.5203
▁니들끼리	-11.5203
▁망하라고	-11.5203
▁개만도	-11.5204
▁학부모한테	-11.5204
▁독점	-11.5205
▁트럼프형님	-11.5205
▁과정이	-11.5206
▁기다려라	-11.5206
▁촛불들고	-11.5209
▁멋진	-11.521
▁가지면	-11.5212
▁대목	-11.5212
▁지켜야	-11.5213
▁제외하고	-11.5213
▁글을	-11.5215
▁생각난다	-11.5217
▁감형	-11.5217
▁진상	-11.5217
▁올려놓고	-11.5217
▁소중한	-11.5219
▁문정권이	-11.5221
▁한잔	-11.5221
▁모르겠냐	-11.5222
▁온국민이	-11.5222
▁곳에서	-11.5222
▁이외에	-11.5223
존엄	-11.5223
▁속은거	-11.5225
뽑았	-11.5226
좌좀	-11.5227
▁애플	-11.5228
▁있었겠지	-11.5228
▁업적이	-11.523
▁서민경제	-11.5233
▁않을까요	-11.5234
▁속죄	-11.5237
▁두손	-11.5237
▁윗선	-11.5237
▁의심이	-11.5237
▁용어	-11.5237
하시나요	-11.5239
▁넘겨주	-11.5241
▁높아서	-11.5241
▁쇼통	-11.5241
안되지	-11.5242
나보지	-11.5243
▁부리는	-11.5244
▁자들은	-11.5244
▁몽둥이가	-11.5244
▁빼면	-11.5245
▁법의	-11.5245
▁재재	-11.5246
▁줄어서	-11.5246
▁체면	-11.5246
==	-11.5246
▁용인	-11.5247
▁늘려야	-11.5248
▁기술력	-11.5248
뭔가	-11.5249
있노	-11.5252
돌보	-11.5253
▁바보들아	-11.5254
▁결혼안하고	-11.5257
▁아닌건	-11.5259
▁코스프레	-11.5259
▁똑똑해	-11.5261
▁ᄀᄉᄁ	-11.5261
랜다	-11.5263
▁비방	-11.5264
▁문베충들	-11.5266
▁밥상	-11.5266
▁지네들	-11.5266
▁임신하면	-11.5267
났으면	-11.5267
거자나	-11.5269
▁합니까	-11.527
▁쉴	-11.5272
평대	-11.5272
드리고	-11.5275
국당	-11.5276
▁개판인데	-11.5276
▁인가	-11.5279
기때문이다	-11.5279
▁해외에서	-11.528
▁돌리는	-11.5281
수있도록	-11.5283
▁맞아야	-11.5284
▁다가오	-11.5285
구걸	-11.5286
▁수수료	-11.5288
뇬들	-11.5289
종사자	-11.529
▁아이키우	-11.5292
▁안만나	-11.5293
▁물질	-11.5294
▁느끼고	-11.5298
▁들어왔	-11.5299
▁떠나라	-11.5299
▁들킨거	-11.5299
▁입주	-11.5308
▁도적	-11.5308
질텐데	-11.5309
▁아니까	-11.5313
안해도	-11.5314
▁이런말	-11.5317
▁맛이	-11.5318
▁주적은	-11.5321
홍	-11.5323
쳐먹은	-11.5325
십년	-11.5326
셨다	-11.5327
쳐놓고	-11.5328
▁해내	-11.5329
파워	-11.5329
▁보며	-11.5332
▁죽으면	-11.5332
▁숨겨놨	-11.5333
▁아니죠	-11.5335
▁연령	-11.5335
▁xx	-11.5338
▁결혼하냐	-11.534
▁처단해야	-11.5341
년들은	-11.5342
▁명백한	-11.5343
▁에라	-11.5343
▁이름으로	-11.5343
태어나	-11.5344
▁볼턴이	-11.5345
긴데	-11.5346
▁팬들	-11.5347
그렇다	-11.5347
▁급격	-11.5347
▁정당한	-11.5347
캬	-11.5349
풉	-11.5349
▁쉴드치는	-11.5349
사기극	-11.5351
▁학교에서	-11.5354
▁좌파들아	-11.5355
부칸	-11.5356
▁환경에	-11.5357
미필	-11.5358
▁행동으로	-11.5358
웃긴	-11.5359
댓글조작	-11.5359
!!!!!!!!!!	-11.5359
▁조장하고	-11.5361
▁정기적	-11.5365
▁배우고	-11.5366
▁원하는데	-11.5368
▁소식이	-11.537
것두	-11.5372
▁사기극이	-11.538
▁칼로	-11.538
몰래	-11.538
▁문재인이랑	-11.5382
▁뭔가요	-11.5383
▁장면	-11.5385
죽는다	-11.5385
내놓	-11.5385
▁관상	-11.5385
비밀	-11.5387
▁알것	-11.5389
▁한심하고	-11.539
체재	-11.539
더이상	-11.5392
생기면	-11.5392
▁축하해	-11.5394
▁치르	-11.5394
선생님	-11.5394
써야	-11.5394
꺼내	-11.5395
▁육아에	-11.5397
물며	-11.5398
탓으로	-11.5399
보낼	-11.54
▁끝났어	-11.54
설령	-11.5402
▁예상된	-11.5403
상태에서	-11.5403
▁역활을	-11.5403
▁면적	-11.5404
무리들	-11.5409
낫네	-11.5411
▁없을거	-11.5413
▁김치년	-11.542
ve	-11.5421
▁성향	-11.5421
▁화면	-11.5422
▁기준이	-11.5422
▁구라를	-11.5422
▁그이상	-11.5423
▁몰리	-11.5423
▁너거들	-11.5425
▁하는건데	-11.5426
▁250	-11.5429
▁집값부터	-11.543
▁됐지	-11.543
▁믿을수가	-11.5433
▁속국	-11.5435
기반	-11.5435
▁위장평화쑈	-11.5436
▁바꾸는	-11.5437
기구	-11.5437
국회	-11.5443
▁쉑	-11.5443
▁기득권들	-11.5444
▁돼지야	-11.5445
할수밖에	-11.5448
▁큰문제	-11.5448
내리고	-11.5452
랜	-11.5456
먹으려는	-11.5456
툭	-11.5458
한것은	-11.5461
▁물어야	-11.5463
▁짓이다	-11.5463
▁추종자	-11.5468
줬네	-11.5468
▁다른사람	-11.5474
▁초소	-11.5474
▁위에서	-11.5474
▁애기낳	-11.5474
▁어이없네	-11.5483
주는건	-11.5485
▁안될거	-11.5485
▁아기낳	-11.5488
▁유학	-11.5488
▁월급으로	-11.5491
할꺼면	-11.5493
인건가	-11.5495
나가고	-11.5496
하네ᄏᄏ	-11.55
▁생색	-11.55
▁일삼는	-11.5507
▁너한테	-11.5508
▁이럴거	-11.5508
주십시오	-11.5509
있나요	-11.551
▁확인하고	-11.5512
▁김정은이한테	-11.5512
약한	-11.5517
▁선생님들	-11.5517
▁일조	-11.5518
▁비아냥	-11.5521
▁사면	-11.5524
보존	-11.5526
▁사장이	-11.5528
해야겠다	-11.5529
▁만나냐	-11.5533
▁제기	-11.5535
▁탈북자	-11.5536
하였다	-11.5537
직장이	-11.554
▁잇다	-11.5544
▁시점이	-11.5547
▁이딴거	-11.555
년형	-11.5554
시나요	-11.5555
넣고	-11.5556
▁연예	-11.556
▁반성해야	-11.556
▁입에서	-11.5561
토록	-11.5561
▁보이나	-11.5562
없습니다	-11.5566
녁	-11.5567
하겠죠	-11.5567
▁거짓평화	-11.5567
맙	-11.5568
아쉽	-11.5568
짚	-11.5571
꿔	-11.5572
▁죽이면	-11.5572
▁안전을	-11.5573
▁찔리	-11.5574
찿	-11.5574
깍	-11.5575
▁무능력한	-11.5575
뮤	-11.5576
🤬	-11.5576
갇	-11.5576
짭	-11.5576
쿵	-11.5576
▁힐러리	-11.5576
🙏	-11.5576
▁JTBC	-11.5576
▁광안대교	-11.5576
▁깊어졌	-11.5576
▁끝판왕	-11.5576
▁능지처참	-11.5576
▁부관참시	-11.5576
▁순식간에	-11.5576
▁얄팍한	-11.5576
▁엉망진창	-11.5576
▁여윽시	-11.5576
▁킹크랩	-11.5576
▁한미연합훈련	-11.5576
썅	-11.5576
웁	-11.5576
▁비겁한	-11.5576
▁집합소	-11.5576
▁텅텅	-11.5576
▁힘드네요	-11.5576
뽄	-11.5576
췄	-11.5576
▁구역질	-11.5576
▁탱크	-11.5576
홍영표	-11.5576
▁훗날	-11.5576
▁자민당	-11.5576
▁안중근	-11.5576
▁작정하고	-11.5576
▁굴뚝에	-11.5576
▁후세인	-11.5576
▁지름길	-11.5576
▁문서파쇄	-11.5576
▁농축시설	-11.5576
서영교	-11.5576
▁블박	-11.5576
▁합작품	-11.5577
입다물고	-11.5577
개나소나	-11.5577
▁첩보	-11.5577
▁다양한	-11.5577
▁이라크	-11.5577
▁역차별	-11.5577
▁내년총선	-11.5578
▁스파이	-11.5578
▁쥐박이	-11.5578
▁빼돌려	-11.5578
ing	-11.5578
▁도시락	-11.5578
▁솔로	-11.5578
▁언론통제	-11.5578
▁떠오르	-11.5579
▁퇴직	-11.5579
▁못차렸	-11.5579
▁정녕	-11.5579
▁평화회담	-11.5579
▁싸대기	-11.5579
▁안타깝습니다	-11.5579
▁짐작	-11.5579
▁스타	-11.5579
▁쌍욕	-11.5579
▁박대통령	-11.558
▁몰빵	-11.558
▁힘듬	-11.558
▁민폐	-11.558
▁의존	-11.558
▁겨울	-11.558
▁잡혔	-11.558
했건만	-11.5581
▁쥐어짜	-11.5581
im	-11.5581
▁추측	-11.5582
▁북미관계	-11.5582
▁얼마든지	-11.5583
▁햇볕정책	-11.5583
▁명언	-11.5584
▁깜도	-11.5584
▁끔찍하다	-11.5585
▁간단하다	-11.5585
▁기다렸	-11.5585
▁미혼모	-11.5585
▁전재산	-11.5585
▁투기꾼들	-11.5586
▁할거냐	-11.5586
▁술먹고	-11.5586
▁출연	-11.5586
▁태반	-11.5587
▁믿으라고	-11.5587
▁벼	-11.5588
하려니	-11.5588
▁몰랐는지	-11.5588
▁조사해야	-11.5588
날듯	-11.5589
▁재벌들	-11.5589
▁징징거리	-11.5589
▁작금	-11.559
▁부탁합니다	-11.559
떨어져서	-11.559
▁맞아죽	-11.5591
▁만들어낸	-11.5594
▁섬나라	-11.5594
▁생존권	-11.5595
이답이다	-11.5596
▁열받아서	-11.5597
▁일반국민	-11.5597
▁아니에요	-11.5598
필요없	-11.5598
▁놀랍다	-11.5599
▁자유당은	-11.5599
▁비꼬	-11.5599
▁증말	-11.56
▁우방국	-11.56
▁않았으면	-11.5601
▁성형	-11.5601
▁말짱	-11.5604
▁아놔	-11.5607
▁가전	-11.5607
▁고딩	-11.5608
▁소득세	-11.5608
▁도출	-11.5609
▁챙기려	-11.5609
▁예상대로	-11.561
의지가	-11.561
▁정숙이	-11.5611
지지자들	-11.5612
▁실속	-11.5613
▁자동으로	-11.5615
▁구려	-11.5616
▁다섯	-11.5616
▁급증	-11.5616
▁단절	-11.5617
▁Y	-11.5619
▁고도	-11.562
▁지난번	-11.562
▁했을때	-11.562
통해	-11.562
▁국방부	-11.5621
▁꼬셔	-11.5627
▁한거네	-11.5627
▁대항	-11.5628
▁중계	-11.5628
▁토끼	-11.5628
▁몇년전	-11.563
▁뮈	-11.5631
▁괴롭	-11.5632
것마냥	-11.5635
▁키우면서	-11.5636
▁사주	-11.5636
▁나을듯	-11.5637
▁쓰레기집단	-11.5637
▁연애도	-11.564
▁이상주의자	-11.564
▁만나긴	-11.564
▁예비	-11.564
▁똑똑하고	-11.5642
▁추후	-11.5643
없앤	-11.5649
인냥	-11.565
▁없을거다	-11.5652
▁친구가	-11.5654
재앙아	-11.5655
▁바뀌어야	-11.5655
것만으로	-11.5655
▁저번	-11.5656
▁구하기	-11.5656
▁말해도	-11.5656
▁치자	-11.5659
▁그많은	-11.566
▁쿵쾅	-11.566
▁실체를	-11.5661
▁반란	-11.5661
▁심하게	-11.5662
▁필요함	-11.5663
▁박아	-11.5663
▁낳는다는	-11.5665
▁띠	-11.5667
떨어진	-11.5669
▁멀었	-11.5671
▁사라지게	-11.5675
▁졷	-11.5678
▁이기야	-11.5682
▁않았냐	-11.5686
해왔다	-11.5686
▁한숨만	-11.5687
▁쓴다고	-11.5689
▁해온	-11.5692
한민국	-11.5693
▁접대	-11.5694
▁끌기	-11.5697
▁나올때	-11.5698
▁무신	-11.5698
▁남한내	-11.57
▁심각성	-11.5701
▁장만	-11.5702
정치를	-11.5703
▁세계적	-11.5703
▁한거다	-11.5703
▁그만하자	-11.5703
월부터	-11.5705
떨어지는	-11.5706
▁말던지	-11.5709
▁안되겠다	-11.5709
개입	-11.5711
▁성질	-11.5711
▁지옥같은	-11.5712
▁31	-11.5713
든데	-11.5714
▁교육정책	-11.5716
▁밟아	-11.5716
되는것	-11.5717
▁날뛰는	-11.5722
▁까대	-11.5724
▁물밑	-11.5725
▁운행	-11.5726
불가능	-11.5726
▁입맛에	-11.5726
▁소용없	-11.5728
▁인정하지	-11.5732
▁둘만	-11.5733
▁자연의	-11.5734
▁만들려	-11.5735
▁광장	-11.5735
▁했어야	-11.5736
▁양국	-11.5736
갑네	-11.5737
▁그러는데	-11.5738
▁쓰면서	-11.5738
▁짜리	-11.5739
막대한	-11.5739
발사	-11.5747
부모에게	-11.575
▁물로	-11.5751
▁마찬가지다	-11.5751
▁안낳으면	-11.5756
으리라	-11.5758
▁씌	-11.5759
▁먹는거	-11.5763
얼마	-11.5763
▁들켰네	-11.5765
▁셈이	-11.5769
▁아니래	-11.577
▁시끼	-11.577
▁콜	-11.5771
지말구	-11.5773
흉	-11.5778
할수없는	-11.5778
해보이	-11.578
씌	-11.578
낳았	-11.5781
▁이용당하	-11.5782
그룹	-11.5783
짜고	-11.5784
첫	-11.5784
하수인	-11.5785
사유재산	-11.5785
멍청이	-11.5785
오세훈	-11.5785
▁서두르지	-11.5785
▁즐기는	-11.5789
▁가져오	-11.5791
▁잡것들	-11.5791
▁정상이지	-11.5792
재판	-11.5792
▁바쁘다	-11.5792
▁김구	-11.5794
▁벌어질	-11.5796
하면되지	-11.5798
해지면	-11.5798
▁지껄이는	-11.5799
새롭게	-11.5801
소굴	-11.5801
▁받는데	-11.5804
▁뺏기	-11.5806
▁깔아주	-11.5807
▁거르	-11.5807
▁미안하지	-11.581
▁나발	-11.581
박스	-11.5812
즐기며	-11.5813
▁없거든	-11.5815
찬성	-11.5818
▁전화로	-11.5822
▁찾아내	-11.5822
심각	-11.5823
폐업	-11.5824
▁영변핵	-11.5824
듯한데	-11.5826
▁자슥	-11.5828
▁있기는	-11.5829
▁벌었	-11.583
▁없더라	-11.583
여기서	-11.5831
▁F	-11.5832
▁인정한다	-11.5835
▁질서	-11.5836
돌아다니면서	-11.5838
▁작당	-11.5838
▁내통	-11.5838
편향	-11.584
▁미필이	-11.5841
▁등신같은	-11.5841
▁키우지	-11.5843
▁박수치	-11.5844
변화	-11.5852
자유당	-11.5855
▁핵폐기할	-11.5855
값에	-11.5859
▁주었	-11.5863
▁탓으로	-11.5863
▁학부모를	-11.5864
▁바닥을	-11.5864
거짓	-11.5865
▁입맛	-11.5866
▁찾을	-11.5868
▁북한이다	-11.5869
▁예수	-11.5871
▁지자체	-11.5871
▁생명을	-11.5871
▁올려야	-11.5873
▁인간이다	-11.5876
그대로	-11.5881
▁짖어	-11.5882
차량	-11.5885
▁비용이	-11.5886
▁선진국들	-11.5886
▁좋아질	-11.5886
섰다	-11.5892
랄까	-11.5892
▁탓하는	-11.5893
매체	-11.5896
▁판깨	-11.5896
▁이제그만	-11.5897
▁해주지	-11.5899
▁끝없	-11.5903
연구	-11.5905
맘이	-11.5905
▁내집	-11.5906
▁북한북한	-11.5908
▁쓰냐	-11.5908
마저도	-11.591
▁욕심을	-11.5911
▁속상	-11.5913
▁실질적	-11.5915
▁빨갱이들아	-11.5918
▁호도하	-11.592
▁경제좀	-11.592
,,,,,,,,,,,	-11.5921
▁상상도	-11.5924
▁아닥	-11.5926
▁못보고	-11.5928
▁바쳐	-11.5929
▁됐어야	-11.5929
▁패거리들	-11.5935
좋타	-11.5935
할수있게	-11.5947
▁자격도	-11.595
▁못알아	-11.595
▁느낀	-11.5953
하시기	-11.5958
▁심각해	-11.596
놨네	-11.5962
▁비용을	-11.5962
▁대갈	-11.5963
부패	-11.5963
주지말고	-11.5964
▁하지마세요	-11.5964
▁한다는게	-11.5968
했을듯	-11.5978
있겠지	-11.5978
누르	-11.5978
▁고사포	-11.5981
▁당시에	-11.5982
▁자율	-11.5983
이래도	-11.5985
▁키워야	-11.5986
돌봄	-11.5986
인것을	-11.5986
▁좌파놈들	-11.5987
▁사용하는	-11.5987
▁혈안	-11.599
맞네	-11.599
▁냅둬	-11.5991
버리니	-11.5991
▁양아치짓	-11.5994
▁육아를	-11.5996
▁까먹	-11.5996
▁도우	-11.5997
▁뿐만	-11.5998
▁땅덩어리	-11.5998
▁누워	-11.6001
싸워	-11.6002
넘게	-11.6004
생각하면	-11.6006
~~~~~~~~~	-11.6007
▁법인	-11.6008
▁깊어지	-11.6008
똑	-11.6009
옵	-11.6009
핀	-11.601
Q	-11.6011
▁뇌피셜	-11.6011
▁닭쫓던	-11.6011
▁바글바글	-11.6011
▁바른미래당	-11.6011
▁아둥바둥	-11.6011
▁어쨋든	-11.6011
▁어처구니	-11.6011
▁엉터리	-11.6011
▁오매불망	-11.6011
▁일시불로	-11.6011
▁일으킨	-11.6011
▁지멋대로	-11.6011
▁탁상행정	-11.6011
▁펙트	-11.6011
긔	-11.6011
뭇	-11.6011
붇	-11.6011
윽	-11.6011
찼	-11.6011
퇘	-11.6011
▁부엉이바위	-11.6011
▁컨트롤	-11.6011
▁호의호식	-11.6011
쑥	-11.6011
추카추카	-11.6011
▁국유화	-11.6011
▁낯짝	-11.6011
▁박용진	-11.6011
▁선량한	-11.6011
▁전수조사	-11.6011
▁국제정세	-11.6011
▁돌파구	-11.6011
▁눈속임	-11.6011
▁짜장면	-11.6011
▁뜬금없	-11.6011
▁획기적	-11.6011
▁리얼미터	-11.6011
▁쫓던	-11.6011
▁카다피	-11.6011
▁챙길	-11.6011
▁가까워	-11.6011
▁즐겁	-11.6011
▁빅엿	-11.6011
랙	-11.6011
▁정수기	-11.6012
▁한걸레	-11.6012
▁흡수통일	-11.6012
▁밑빠진	-11.6012
▁무역전쟁	-11.6012
▁근로자	-11.6012
▁뱅기	-11.6013
▁깔깔	-11.6013
▁이중성	-11.6013
▁놀이터	-11.6013
▁보였	-11.6013
▁이석기	-11.6013
▁남북철도	-11.6013
▁구속수사	-11.6013
▁탈퇴	-11.6013
▁용납	-11.6013
▁기자양반	-11.6014
▁미룬	-11.6014
▁교훈	-11.6014
▁휘둘리지	-11.6014
▁침투	-11.6014
▁충견	-11.6014
▁붙잡고	-11.6015
▁적정인구	-11.6015
방해	-11.6015
▁낳아주	-11.6015
▁땅굴	-11.6015
▁시달리	-11.6016
▁너넨	-11.6016
▁뇌사상태	-11.6016
▁배워서	-11.6016
▁떡락	-11.6016
▁찢	-11.6017
▁역량	-11.6017
▁낳아봤자	-11.6017
▁일어났	-11.6017
▁경향	-11.6017
▁예능	-11.6017
▁친일매국노	-11.6017
▁음악	-11.6017
▁놀아나고	-11.6018
▁사회구조	-11.6018
차산업	-11.6018
▁주한미군철수	-11.6018
▁돼지와	-11.6019
▁두마리	-11.6019
▁전기세	-11.6019
▁3040	-11.602
▁혼자사는	-11.6021
▁있었을텐데	-11.6022
▁자세히	-11.6022
▁실화냐	-11.6022
▁주도적으로	-11.6023
▁어떠	-11.6023
▁어떻하냐	-11.6023
▁해택	-11.6024
▁이스라엘처럼	-11.6024
▁폐병	-11.6024
▁쌤통이다	-11.6024
▁외치며	-11.6025
굴리	-11.6025
▁화난다	-11.6025
▁명심해라	-11.6026
▁붕신	-11.6026
▁콱	-11.6026
▁뭘믿고	-11.6027
▁회식	-11.6027
▁알았는지	-11.6027
▁반응이	-11.6027
▁단축	-11.6027
▁의미있는	-11.6027
▁의미없다	-11.6028
▁예약	-11.6028
▁창문	-11.6028
▁이시점에	-11.6029
▁이땅에서	-11.6029
▁재조사	-11.603
▁뻔뻔하게	-11.6032
우린	-11.6032
▁각오해라	-11.6032
▁거지꼴	-11.6034
불매운동	-11.6034
▁대리운전	-11.6034
▁파쇄를	-11.6035
▁거주	-11.6035
▁개구라	-11.6036
▁조심해라	-11.6036
될꺼	-11.6037
▁케어	-11.6038
▁저질러	-11.6038
▁남의나라	-11.6039
▁기다리면	-11.6039
▁수사를	-11.6039
▁최신	-11.6039
▁ᄋᄏ	-11.6039
▁다행입니다	-11.604
▁애엄마	-11.6041
▁전세계적으로	-11.6042
▁표를	-11.6042
2%	-11.6043
dr	-11.6044
▁문대가리	-11.6045
▁아쉬울게	-11.6046
색휘	-11.6046
!!!!!!!!!!!	-11.6046
▁몇달	-11.6047
▁가관이다	-11.6047
▁흔들어	-11.6047
▁세운	-11.6048
▁이상황에	-11.6048
▁풀어줘	-11.6048
▁한국전쟁	-11.6049
▁검색어	-11.6049
▁손잡	-11.6049
▁쌩쇼	-11.6049
▁다를게	-11.605
▁사귀	-11.6051
▁선심	-11.6051
▁멋져	-11.6053
▁빈부	-11.6053
▁정책과	-11.6054
▁옛말	-11.6054
▁안전하게	-11.6054
▁아니더라도	-11.6056
▁짖어대	-11.6057
▁쓸데	-11.6057
▁재산권	-11.6058
▁버티고	-11.6058
▁대통령께서	-11.6059
▁쓸데없는데	-11.606
▁뽑았네	-11.6061
▁똘아이	-11.6063
하십니까	-11.6063
▁목줄	-11.6065
▁모르겠네요	-11.6066
▁특사	-11.6067
▁잦	-11.6068
▁우겨	-11.607
▁궁금해서	-11.607
▁형국	-11.607
▁어이없다	-11.6071
▁믿을걸	-11.6072
나라팔아먹	-11.6072
▁비핵화라는	-11.6072
▁포주	-11.6072
▁틀림없다	-11.6073
▁관대	-11.6073
▁유통	-11.6073
계산	-11.6073
▁주려고	-11.6074
▁문통님	-11.6076
▁지급해라	-11.6076
민주화운동	-11.6077
▁ᄑᄒᄒ	-11.6077
▁오버	-11.6078
나가야	-11.6078
▁낳던	-11.6079
▁독재국가	-11.6081
십니다	-11.6081
▁약화	-11.6082
▁핵협상	-11.6082
▁아닐까요	-11.6083
▁근거로	-11.6092
▁대통령한테	-11.6093
▁퍼줄생각만	-11.6096
▁경찰서	-11.6096
▁받아먹고	-11.6097
▁잘살아	-11.6099
▁급한건	-11.6099
▁뺐	-11.6099
▁몰랐을리	-11.61
▁망함	-11.61
▁현실입니다	-11.6101
▁교육자라고	-11.6101
▁의지와	-11.6102
▁뭉치	-11.6103
▁시장이	-11.6104
▁생각말고	-11.6106
▁않된다	-11.6107
시키는게	-11.6108
▁애키우는	-11.6109
했단	-11.611
▁배달하는	-11.6111
▁못할거	-11.6112
▁원래부터	-11.6112
끌려	-11.6113
▁벌인	-11.6113
▁줄려고	-11.6113
이라곤	-11.6114
▁바꾸자	-11.6115
▁사세요	-11.6118
▁어디냐	-11.6118
하는걸로	-11.6119
손해	-11.612
▁육갑	-11.6121
이유는	-11.6122
이랑께	-11.6123
▁주사	-11.6126
▁낳았다	-11.6128
이런거	-11.6129
▁airi	-11.613
하자마자	-11.6131
이라는거	-11.6132
▁전망	-11.6135
▁사이에서	-11.6136
▁이지랄	-11.6136
ᄏᄀᄏᄀ	-11.6136
▁윗대가리	-11.6136
▁조심해야	-11.6137
속이고	-11.6138
▁그랬냐	-11.6139
정치인들	-11.614
▁한글	-11.6141
▁답답하네	-11.6141
됐으니	-11.6143
▁사실이면	-11.6144
▁달려들	-11.6145
▁인재가	-11.6146
▁쉬운일	-11.6146
▁지피	-11.6149
▁보일	-11.615
▁주둥이로	-11.6151
▁조기	-11.6156
▁깡	-11.6158
▁공기질	-11.6159
▁저들의	-11.6159
▁수준이다	-11.6161
너희	-11.6161
▁받을수	-11.6167
▁비참	-11.6168
▁지워	-11.6169
▁따지고	-11.617
▁정부정책	-11.617
▁살고있는	-11.6181
▁전쟁이나	-11.6183
▁시민단체	-11.6183
▁중국이랑	-11.6183
찍었	-11.6186
▁쓰자	-11.6188
하랴	-11.619
▁지키려	-11.6191
▁속아주	-11.6193
▁시작된	-11.6193
▁어린아이	-11.6194
썼는지	-11.6196
▁부족하다	-11.62
▁운전하는	-11.62
▁잘주는	-11.6201
▁할생각	-11.6201
년정도	-11.6201
▁뭘해도	-11.6204
27	-11.6206
▁대외	-11.6208
▁내놔	-11.621
우려	-11.6211
▁모으	-11.6213
된거야	-11.6213
▁사드	-11.6213
▁인정해라	-11.6214
▁뿔	-11.6215
▁장식	-11.6215
▁쏘고	-11.6215
▁나온게	-11.6217
▁계층	-11.6219
▁그때부터	-11.6219
▁싶음	-11.622
드시고	-11.6222
역대	-11.6223
▁모르겠고	-11.6224
▁생각안하	-11.6224
▁어찌되	-11.6226
▁성님	-11.6227
▁안쓰럽	-11.6227
▁동남아로	-11.6228
▁수행	-11.6228
시러	-11.6228
떨어졌	-11.6233
▁반납	-11.6234
갸	-11.6235
▁지켜보고	-11.6237
▁조여	-11.6239
검찰	-11.6239
사립유치원	-11.6239
밥그릇	-11.6239
금강산	-11.6239
저렇게	-11.6239
▁의도가	-11.6239
열심히	-11.6239
▁노예들이	-11.6239
애초에	-11.624
팩트	-11.624
버릇	-11.624
김대중	-11.6241
▁마지막으로	-11.6241
▁부처	-11.6241
폼	-11.6242
▁심하다	-11.6242
▁보안	-11.6243
여가부	-11.6243
수업	-11.6244
엄청	-11.6244
한다는건	-11.6244
맞춰	-11.6248
목표	-11.6251
▁거기다가	-11.6252
22	-11.6253
있는것	-11.6253
확보	-11.6253
▁바뀌어	-11.6254
크게	-11.6255
▁질질끌	-11.6255
봤으면	-11.6256
믿을	-11.6256
▁될까봐	-11.6258
철학	-11.6261
▁해대고	-11.6261
테러	-11.6261
▁지우	-11.6266
그동안	-11.6267
▁자리를	-11.6272
▁이정부는	-11.6272
▁방해하는	-11.6272
고싶어도	-11.6272
▁갈길	-11.6273
▁없애자	-11.6275
▁거리고	-11.6275
▁어렵지	-11.6278
▁잊지	-11.6279
▁될것을	-11.628
남녀	-11.6281
늙은	-11.6283
▁주장하	-11.6286
견제	-11.6287
협력	-11.6291
뻔뻔	-11.6293
▁나하나	-11.6301
공무원들	-11.6304
광주	-11.6306
설마	-11.6306
▁빼기	-11.6306
놓구	-11.6308
14	-11.6308
되기전에	-11.6309
▁65	-11.6316
▁얘네들	-11.6316
▁힘든나라	-11.6316
▁해법	-11.6318
▁산으로	-11.632
실망	-11.6321
▁업고	-11.6326
▁잡는다	-11.6331
왔냐	-11.6332
de	-11.6334
▁욕하지	-11.6335
▁조작이고	-11.6339
▁넣고	-11.6341
쓰까	-11.6342
▁접고	-11.6343
▁장난치는	-11.6344
▁꿈꾸는	-11.6344
▁남자와	-11.6345
▁장사를	-11.635
▁해줘야지	-11.6351
공감	-11.6351
▁쓰지도	-11.6353
▁털리	-11.6353
▁거덜	-11.6355
▁세명	-11.6355
▁그런거지	-11.6356
▁나누	-11.6356
▁석고대죄	-11.6359
제일	-11.636
▁어린아이들	-11.6361
▁내놔야	-11.6361
▁티가	-11.6362
▁지원해주는	-11.6364
통화	-11.6377
▁누구든	-11.6377
안하냐	-11.6377
양심	-11.638
치지말고	-11.638
깔아	-11.638
것같아	-11.6383
▁좌좀들은	-11.6383
대기업	-11.6384
▁망쳤	-11.6386
▁결혼하려	-11.6389
▁매달려	-11.6392
오빠	-11.6393
▁무사	-11.6394
▁찾고	-11.6394
▁다행인	-11.6396
▁가정에서	-11.6396
▁만난다	-11.6398
▁못합니다	-11.6399
▁부하	-11.64
▁기부	-11.6402
▁문똥	-11.6402
하겠단	-11.6403
싶네요	-11.6404
▁상태로	-11.6405
▁말길	-11.6407
살릴	-11.6407
▁그랬지	-11.6408
▁느그들이	-11.6411
▁후려	-11.6421
▁증거다	-11.6424
▁딴짓	-11.6424
룬	-11.6432
▁잘했네	-11.644
▁잊었	-11.6442
되리라	-11.6442
테이블	-11.6443
걱	-11.6445
그것	-11.6445
▁동거	-11.6447
▁애놓	-11.6449
▁살아나	-11.6449
▁노년	-11.645
▁넘는다	-11.6454
▁해결하려	-11.6456
▁없는거지	-11.6456
▁좀비들	-11.6459
하여야	-11.6461
륜	-11.6462
부채	-11.6463
팩	-11.6463
줬더니	-11.6464
끓	-11.6464
▁상징	-11.6464
낯	-11.6465
푹	-11.6465
뵈	-11.6465
깽	-11.6465
팠	-11.6465
펜	-11.6465
|	-11.6465
▁icbm	-11.6465
▁꼬락서니	-11.6465
▁뉴질랜드	-11.6465
▁백두혈통	-11.6465
▁빵셔틀	-11.6465
▁삼척동자도	-11.6465
▁아름다운	-11.6465
▁연말정산	-11.6465
▁연예기획사	-11.6465
▁워싱턴	-11.6465
▁인공위성	-11.6465
▁흐지부지	-11.6465
깁	-11.6465
빻	-11.6465
펀	-11.6465
펄	-11.6465
홈	-11.6465
▁이미알고있었다	-11.6465
샹	-11.6465
▁공중파	-11.6465
▁설래발	-11.6465
▁인간말종	-11.6465
▁첫술에	-11.6465
▁큰그림	-11.6465
▁눈높이	-11.6465
▁청화대	-11.6465
▁방과후	-11.6465
▁lg	-11.6465
▁끼리끼리	-11.6465
▁무언가	-11.6465
▁젠장	-11.6465
▁철저한	-11.6465
▁지뢰제거	-11.6466
▁민주노총	-11.6466
▁곤란	-11.6466
될까봐	-11.6466
▁문두로	-11.6466
길바란다	-11.6466
▁곱게	-11.6466
▁토해내	-11.6466
▁힘듭니다	-11.6466
▁저렴한	-11.6467
▁치매걸린	-11.6467
▁망나니	-11.6467
▁배달앱	-11.6467
▁먹튀	-11.6467
▁헛지랄	-11.6467
▁다둥이	-11.6467
뿐만아니라	-11.6467
▁슬퍼	-11.6468
▁맘껏	-11.6468
▁본격적	-11.6468
▁패턴	-11.6468
▁앞으론	-11.6468
▁뛰어놀	-11.6468
▁발톱	-11.6468
▁감춘	-11.6469
▁안중에	-11.647
▁사퇴하라	-11.647
▁정부보조금	-11.6471
깨진	-11.6471
▁레알	-11.6471
▁사회분위기	-11.6471
▁식량	-11.6471
▁북대변인	-11.6471
24	-11.6471
▁어머	-11.6471
▁가진자	-11.6472
▁이때다	-11.6472
▁짱께	-11.6472
▁실업율	-11.6472
▁없앤다	-11.6473
▁관료	-11.6474
▁딴소리	-11.6474
▁이래놓고	-11.6474
▁철회	-11.6474
▁바꾼	-11.6475
▁아랫	-11.6475
▁학종	-11.6476
▁대략	-11.6476
▁40%	-11.6477
▁핵위협	-11.6478
▁딱가리	-11.6478
▁기냥	-11.6478
▁떠벌	-11.6478
▁안정적인	-11.6479
▁종족	-11.6479
맞아서	-11.6481
▁봐주는	-11.6481
▁만만세	-11.6481
▁똑같음	-11.6482
▁잔인하	-11.6483
▁백프로	-11.6483
그돈	-11.6483
질환	-11.6483
독가스	-11.6484
▁나왔으면	-11.6484
▁뇌없는	-11.6484
▁그날까지	-11.6485
▁사실이라면	-11.6485
▁비출산	-11.6486
▁씨알	-11.6486
▁내세워	-11.6487
▁어디있냐	-11.6487
▁자연히	-11.6487
▁오다리	-11.6487
▁두둔하	-11.649
던말던	-11.649
▁승부	-11.6492
갈수록	-11.6492
▁없을텐데	-11.6494
▁바가지	-11.6495
▁돈없어서	-11.6496
불리	-11.6497
▁우리동네	-11.6497
▁핵을포기	-11.6497
▁아시죠	-11.6498
▁얘길	-11.6498
쩝쩝이	-11.6499
[...]
